<pad>	0
<s>	0
</s>	0
<unk>	0
<|pad|>	0
<|bos|>	0
<|eos|>	0
<|im_start|>	0
<|im_end|>	0
<|claude-code|>	0
<|chatgpt|>	0
<|cursor|>	0
<|generic|>	0
<|system|>	0
<|user|>	0
<|assistant|>	0
<0x00>	0
<0x01>	0
<0x02>	0
<0x03>	0
<0x04>	0
<0x05>	0
<0x06>	0
<0x07>	0
<0x08>	0
<0x09>	0
<0x0A>	0
<0x0B>	0
<0x0C>	0
<0x0D>	0
<0x0E>	0
<0x0F>	0
<0x10>	0
<0x11>	0
<0x12>	0
<0x13>	0
<0x14>	0
<0x15>	0
<0x16>	0
<0x17>	0
<0x18>	0
<0x19>	0
<0x1A>	0
<0x1B>	0
<0x1C>	0
<0x1D>	0
<0x1E>	0
<0x1F>	0
<0x20>	0
<0x21>	0
<0x22>	0
<0x23>	0
<0x24>	0
<0x25>	0
<0x26>	0
<0x27>	0
<0x28>	0
<0x29>	0
<0x2A>	0
<0x2B>	0
<0x2C>	0
<0x2D>	0
<0x2E>	0
<0x2F>	0
<0x30>	0
<0x31>	0
<0x32>	0
<0x33>	0
<0x34>	0
<0x35>	0
<0x36>	0
<0x37>	0
<0x38>	0
<0x39>	0
<0x3A>	0
<0x3B>	0
<0x3C>	0
<0x3D>	0
<0x3E>	0
<0x3F>	0
<0x40>	0
<0x41>	0
<0x42>	0
<0x43>	0
<0x44>	0
<0x45>	0
<0x46>	0
<0x47>	0
<0x48>	0
<0x49>	0
<0x4A>	0
<0x4B>	0
<0x4C>	0
<0x4D>	0
<0x4E>	0
<0x4F>	0
<0x50>	0
<0x51>	0
<0x52>	0
<0x53>	0
<0x54>	0
<0x55>	0
<0x56>	0
<0x57>	0
<0x58>	0
<0x59>	0
<0x5A>	0
<0x5B>	0
<0x5C>	0
<0x5D>	0
<0x5E>	0
<0x5F>	0
<0x60>	0
<0x61>	0
<0x62>	0
<0x63>	0
<0x64>	0
<0x65>	0
<0x66>	0
<0x67>	0
<0x68>	0
<0x69>	0
<0x6A>	0
<0x6B>	0
<0x6C>	0
<0x6D>	0
<0x6E>	0
<0x6F>	0
<0x70>	0
<0x71>	0
<0x72>	0
<0x73>	0
<0x74>	0
<0x75>	0
<0x76>	0
<0x77>	0
<0x78>	0
<0x79>	0
<0x7A>	0
<0x7B>	0
<0x7C>	0
<0x7D>	0
<0x7E>	0
<0x7F>	0
<0x80>	0
<0x81>	0
<0x82>	0
<0x83>	0
<0x84>	0
<0x85>	0
<0x86>	0
<0x87>	0
<0x88>	0
<0x89>	0
<0x8A>	0
<0x8B>	0
<0x8C>	0
<0x8D>	0
<0x8E>	0
<0x8F>	0
<0x90>	0
<0x91>	0
<0x92>	0
<0x93>	0
<0x94>	0
<0x95>	0
<0x96>	0
<0x97>	0
<0x98>	0
<0x99>	0
<0x9A>	0
<0x9B>	0
<0x9C>	0
<0x9D>	0
<0x9E>	0
<0x9F>	0
<0xA0>	0
<0xA1>	0
<0xA2>	0
<0xA3>	0
<0xA4>	0
<0xA5>	0
<0xA6>	0
<0xA7>	0
<0xA8>	0
<0xA9>	0
<0xAA>	0
<0xAB>	0
<0xAC>	0
<0xAD>	0
<0xAE>	0
<0xAF>	0
<0xB0>	0
<0xB1>	0
<0xB2>	0
<0xB3>	0
<0xB4>	0
<0xB5>	0
<0xB6>	0
<0xB7>	0
<0xB8>	0
<0xB9>	0
<0xBA>	0
<0xBB>	0
<0xBC>	0
<0xBD>	0
<0xBE>	0
<0xBF>	0
<0xC0>	0
<0xC1>	0
<0xC2>	0
<0xC3>	0
<0xC4>	0
<0xC5>	0
<0xC6>	0
<0xC7>	0
<0xC8>	0
<0xC9>	0
<0xCA>	0
<0xCB>	0
<0xCC>	0
<0xCD>	0
<0xCE>	0
<0xCF>	0
<0xD0>	0
<0xD1>	0
<0xD2>	0
<0xD3>	0
<0xD4>	0
<0xD5>	0
<0xD6>	0
<0xD7>	0
<0xD8>	0
<0xD9>	0
<0xDA>	0
<0xDB>	0
<0xDC>	0
<0xDD>	0
<0xDE>	0
<0xDF>	0
<0xE0>	0
<0xE1>	0
<0xE2>	0
<0xE3>	0
<0xE4>	0
<0xE5>	0
<0xE6>	0
<0xE7>	0
<0xE8>	0
<0xE9>	0
<0xEA>	0
<0xEB>	0
<0xEC>	0
<0xED>	0
<0xEE>	0
<0xEF>	0
<0xF0>	0
<0xF1>	0
<0xF2>	0
<0xF3>	0
<0xF4>	0
<0xF5>	0
<0xF6>	0
<0xF7>	0
<0xF8>	0
<0xF9>	0
<0xFA>	0
<0xFB>	0
<0xFC>	0
<0xFD>	0
<0xFE>	0
<0xFF>	0
on	-0
te	-1
▁-	-2
an	-3
es	-4
in	-5
en	-6
ri	-7
##	-8
▁##	-9
▁<	-10
at	-11
▁c	-12
▁d	-13
or	-14
ac	-15
st	-16
ar	-17
ut	-18
un	-19
▁de	-20
▁C	-21
ion	-22
ce	-23
▁O	-24
ra	-25
re	-26
▁s	-27
▁A	-28
▁</	-29
ent	-30
le	-31
orm	-32
▁f	-33
il	-34
mp	-35
▁p	-36
ormat	-37
al	-38
as	-39
onte	-40
▁OK	-41
er	-42
ts	-43
la	-44
▁ch	-45
ang	-46
ontex	-47
ro	-48
pt	-49
▁a	-50
ch	-51
ontext	-52
▁n	-53
ment	-54
▁te	-55
▁b	-56
it	-57
ur	-58
▁chang	-59
▁co	-60
▁re	-61
ation	-62
▁t	-63
rain	-64
ot	-65
▁S	-66
▁D	-67
ptan	-68
mple	-69
▁test	-70
ze	-71
ing	-72
onst	-73
put	-74
utput	-75
rite	-76
ceptan	-77
ceptance	-78
raints	-79
onstraints	-80
▁k	-81
▁F	-82
eri	-83
format	-84
▁not	-85
is	-86
▁tests	-87
mplement	-88
▁fil	-89
▁un	-90
▁B	-91
fi	-92
tas	-93
nal	-94
ary	-95
de	-96
▁g	-97
fy	-98
output	-99
constraints	-100
task	-101
context	-102
acceptance	-103
ted	-104
▁K	-105
▁V	-106
lated	-107
▁files	-108
▁Veri	-109
▁changes	-110
yze	-111
▁Anal	-112
▁Analyze	-113
▁Verify	-114
▁m	-115
os	-116
ti	-117
ok	-118
ao	-119
▁P	-120
▁M	-121
▁i	-122
ag	-123
da	-124
do	-125
ec	-126
ij	-127
riteri	-128
ess	-129
▁e	-130
ke	-131
▁j	-132
ong	-133
um	-134
▁in	-135
rac	-136
▁to	-137
pl	-138
hi	-139
ve	-140
▁T	-141
onfi	-142
tion	-143
ye	-144
▁h	-145
▁Do	-146
lan	-147
▁r	-148
▁comp	-149
ib	-150
▁w	-151
ul	-152
ya	-153
▁ad	-154
mo	-155
di	-156
▁I	-157
▁implement	-158
ab	-159
▁Format	-160
▁R	-161
el	-162
ity	-163
ard	-164
▁code	-165
rm	-166
▁ab	-167
urr	-168
ility	-169
▁Tes	-170
ou	-171
ark	-172
ack	-173
▁Confi	-174
ppl	-175
ind	-176
strac	-177
▁v	-178
nec	-179
▁Tests	-180
▁implementation	-181
teg	-182
ung	-183
ff	-184
▁Di	-185
▁remo	-186
umm	-187
ummary	-188
▁E	-189
▁add	-190
▁remove	-191
▁bro	-192
▁—	-193
▁l	-194
wn	-195
down	-196
▁Mark	-197
▁Markdown	-198
▁+	-199
▁change	-200
tions	-201
▁unre	-202
hing	-203
▁unrelated	-204
▁run	-205
▁Diff	-206
urrent	-207
▁current	-208
pply	-209
essary	-210
▁unnec	-211
▁abstrac	-212
▁unnecessary	-213
▁Find	-214
▁Confirm	-215
▁Apply	-216
▁broke	-217
▁nothing	-218
▁related	-219
▁abstractions	-220
▁Back	-221
ibility	-222
▁Summary	-223
ward	-224
▁Plan	-225
▁compat	-226
▁Backward	-227
▁Implement	-228
▁compatibility	-229
ai	-230
▁Context	-231
ap	-232
ik	-233
ku	-234
et	-235
ort	-236
▁format	-237
▁ac	-238
hu	-239
acion	-240
eb	-241
est	-242
vo	-243
acao	-244
ma	-245
▁o	-246
▁J	-247
ei	-248
▁pro	-249
oc	-250
ali	-251
lar	-252
rap	-253
riter	-254
je	-255
us	-256
▁integ	-257
ki	-258
▁G	-259
zh	-260
ug	-261
ru	-262
eng	-263
he	-264
ani	-265
oku	-266
ian	-267
og	-268
▁Ob	-269
ric	-270
gr	-271
ad	-272
iao	-273
ija	-274
▁la	-275
rit	-276
▁ace	-277
riterios	-278
▁Criterios	-279
▁Rest	-280
▁Restric	-281
▁Formato	-282
▁Contexto	-283
eu	-284
port	-285
▁wo	-286
eg	-287
ini	-288
ont	-289
em	-290
ten	-291
ontek	-292
▁Kontek	-293
yeong	-294
ic	-295
lam	-296
tes	-297
mi	-298
eo	-299
cion	-300
▁Y	-301
▁er	-302
ijun	-303
▁Ac	-304
ho	-305
▁y	-306
end	-307
li	-308
fic	-309
yo	-310
ans	-311
ej	-312
▁pag	-313
leri	-314
isit	-315
▁Kisit	-316
▁Kisitlar	-317
abul	-318
▁Kabul	-319
▁kriter	-320
▁kriterleri	-321
ikti	-322
▁Bag	-323
▁Cikti	-324
▁Baglam	-325
▁formati	-326
▁Output	-327
riteria	-328
▁criteria	-329
▁Acceptance	-330
▁no	-331
▁Constraints	-332
od	-333
uto	-334
▁rap	-335
▁Sh	-336
gur	-337
▁W	-338
uth	-339
ver	-340
▁ges	-341
▁u	-342
che	-343
▁Z	-344
jeti	-345
jetivo	-346
▁Objetivo	-347
▁Et	-348
▁Etap	-349
ration	-350
sch	-351
▁the	-352
alida	-353
and	-354
zk	-355
orti	-356
abe	-357
▁ex	-358
ede	-359
ata	-360
▁des	-361
▁ro	-362
▁sa	-363
▁z	-364
qu	-365
▁ya	-366
ler	-367
ne	-368
ig	-369
ll	-370
▁al	-371
▁inf	-372
ose	-373
ase	-374
▁ha	-375
uru	-376
ir	-377
ite	-378
enk	-379
chu	-380
ortie	-381
lu	-382
PI	-383
yaku	-384
go	-385
yon	-386
Auth	-387
▁web	-388
eij	-389
eis	-390
omple	-391
oal	-392
▁en	-393
onfigur	-394
▁Adi	-395
tu	-396
▁se	-397
no	-398
▁Ak	-399
▁Akze	-400
ptanzk	-401
riterien	-402
▁Akzeptanzk	-403
▁Ein	-404
raenk	-405
ungen	-406
▁Einsch	-407
raenkungen	-408
cept	-409
usg	-410
▁Ausg	-411
▁Ausgabe	-412
▁Kontext	-413
▁Ausgabeformat	-414
accept	-415
riteres	-416
▁Criteres	-417
acceptation	-418
ie	-419
▁tes	-420
▁Cont	-421
raintes	-422
▁Contraintes	-423
ontexte	-424
▁sortie	-425
▁Contexte	-426
▁po	-427
ciones	-428
▁Restricciones	-429
▁acept	-430
▁aceptacion	-431
▁salida	-432
▁x	-433
▁API	-434
ST	-435
▁RE	-436
▁REST	-437
WT	-438
▁JWT	-439
aeg	-440
ket	-441
enija	-442
ente	-443
▁mod	-444
ocket	-445
▁Ch	-446
QL	-447
anich	-448
granich	-449
▁OAuth	-450
raph	-451
▁ur	-452
raphQL	-453
▁GraphQL	-454
▁biao	-455
ker	-456
▁H	-457
▁CI	-458
hook	-459
CD	-460
cker	-461
▁Docker	-462
▁export	-463
ps	-464
edef	-465
▁Hedef	-466
mlar	-467
to	-468
▁Goal	-469
▁Adimlar	-470
teps	-471
▁Steps	-472
eh	-473
ific	-474
ror	-475
▁vy	-476
▁error	-477
ja	-478
▁doc	-479
sik	-480
ura	-481
ari	-482
▁el	-483
▁sai	-484
agi	-485
ine	-486
stro	-487
voda	-488
▁vyvoda	-489
▁Kontekst	-490
▁pri	-491
oes	-492
itacao	-493
▁aceitacao	-494
emki	-495
riterii	-496
▁priemki	-497
▁Kriterii	-498
▁Restricoes	-499
▁Ogranich	-500
▁Ogranichenija	-501
▁saida	-502
yeok	-503
ate	-504
▁integrac	-505
▁webhook	-506
▁urg	-507
▁rapi	-508
hou	-509
▁Web	-510
▁Sei	-511
▁pagin	-512
▁ri	-513
▁li	-514
ov	-515
se	-516
eren	-517
▁ji	-518
cri	-519
▁configur	-520
ste	-521
▁bug	-522
ument	-523
ak	-524
▁ko	-525
▁shi	-526
▁suru	-527
cheng	-528
erf	-529
ol	-530
ongh	-531
oad	-532
ull	-533
eya	-534
eyak	-535
oseon	-536
▁Jeyak	-537
▁joseon	-538
▁sis	-539
▁CS	-540
urak	-541
▁Surak	-542
▁gijun	-543
▁Baeg	-544
▁Chull	-545
▁hyeong	-546
▁Baegyeong	-547
▁Chullyeok	-548
▁hyeongsik	-549
Socket	-550
▁WebSocket	-551
ues	-552
▁notific	-553
▁Ju	-554
▁Shu	-555
▁Beij	-556
▁geshi	-557
▁Shuchu	-558
▁Beijing	-559
ueshu	-560
▁Yueshu	-561
daku	-562
▁kijun	-563
▁Judaku	-564
▁fa	-565
zhun	-566
▁Yans	-567
▁Yanshou	-568
▁biaozhun	-569
uts	-570
ury	-571
hiki	-572
isuto	-573
▁keis	-574
uryoku	-575
▁Shuts	-576
▁keishiki	-577
▁Kontekisuto	-578
▁Shutsuryoku	-579
▁gen	-580
▁Seiyaku	-581
jec	-582
▁perf	-583
▁gener	-584
cel	-585
chrit	-586
uu	-587
▁plan	-588
▁document	-589
si	-590
gi	-591
hy	-592
ado	-593
stru	-594
biao	-595
zhi	-596
gorit	-597
asi	-598
chn	-599
▁form	-600
▁tab	-601
▁siste	-602
▁CSV	-603
mport	-604
▁pan	-605
▁car	-606
▁chat	-607
rab	-608
DF	-609
▁ar	-610
▁PDF	-611
iel	-612
▁Ziel	-613
tif	-614
jectif	-615
▁Objectif	-616
▁Etapes	-617
len	-618
me	-619
chritte	-620
▁Schritte	-621
▁Pas	-622
▁Pasos	-623
▁si	-624
ontro	-625
▁gu	-626
▁man	-627
ju	-628
fac	-629
ubiao	-630
po	-631
ge	-632
▁con	-633
▁et	-634
▁so	-635
ras	-636
uzh	-637
▁log	-638
▁su	-639
erv	-640
xy	-641
ash	-642
▁algorit	-643
▁Shagi	-644
om	-645
▁serv	-646
ip	-647
alid	-648
▁Cel	-649
ache	-650
ipel	-651
▁progr	-652
ipeline	-653
oring	-654
▁valid	-655
▁Etapas	-656
▁par	-657
ora	-658
▁perform	-659
▁modul	-660
ed	-661
▁Ex	-662
▁urgente	-663
mento	-664
▁fun	-665
▁Excel	-666
ama	-667
▁qu	-668
isi	-669
ter	-670
▁rend	-671
▁rapido	-672
▁up	-673
▁Re	-674
orar	-675
min	-676
▁U	-677
onent	-678
ode	-679
▁for	-680
▁est	-681
zar	-682
ji	-683
ny	-684
ast	-685
▁enteg	-686
▁shite	-687
▁ek	-688
eute	-689
▁integration	-690
▁as	-691
chi	-692
lease	-693
okp	-694
okpyo	-695
▁Mokpyo	-696
uzhou	-697
▁Buzhou	-698
hyou	-699
▁Moku	-700
▁Mokuhyou	-701
▁veri	-702
▁Mubiao	-703
yae	-704
▁Dang	-705
▁Dangyae	-706
▁ky	-707
tegration	-708
pu	-709
ay	-710
ejun	-711
▁Tejun	-712
ingu	-713
uy	-714
▁data	-715
sa	-716
▁sche	-717
lo	-718
ehler	-719
log	-720
aten	-721
erung	-722
▁proxy	-723
zy	-724
▁gestion	-725
oru	-726
▁is	-727
rov	-728
▁dan	-729
bo	-730
fil	-731
▁progress	-732
▁indi	-733
▁cache	-734
▁unit	-735
▁import	-736
utoc	-737
▁autoc	-738
▁autocomple	-739
▁shu	-740
res	-741
▁pipeline	-742
▁regi	-743
ador	-744
id	-745
▁filt	-746
vor	-747
▁por	-748
▁favor	-749
▁dat	-750
ka	-751
ida	-752
ob	-753
acija	-754
▁na	-755
▁Comple	-756
▁ob	-757
ain	-758
▁sec	-759
ctu	-760
rastru	-761
▁le	-762
ontrol	-763
▁secu	-764
▁hata	-765
und	-766
rich	-767
rep	-768
ach	-769
repar	-770
stell	-771
▁Prepar	-772
▁da	-773
ugou	-774
▁tougou	-775
sei	-776
▁documentation	-777
▁hand	-778
▁ic	-779
▁icin	-780
onghap	-781
▁tonghap	-782
▁es	-783
euteu	-784
sta	-785
eshi	-786
▁jicheng	-787
▁bag	-788
reg	-789
yonun	-790
gu	-791
esti	-792
uf	-793
▁ga	-794
uro	-795
▁fi	-796
mini	-797
pil	-798
▁deb	-799
▁at	-800
▁yaz	-801
ant	-802
▁page	-803
zi	-804
▁fu	-805
anc	-806
rate	-807
▁schema	-808
ebas	-809
▁pru	-810
▁pruebas	-811
ction	-812
▁errores	-813
▁st	-814
▁sistemi	-815
verse	-816
rag	-817
▁Daten	-818
▁set	-819
cript	-820
rar	-821
▁blog	-822
▁dok	-823
▁load	-824
tic	-825
nyh	-826
▁dannyh	-827
▁panel	-828
▁formu	-829
▁say	-830
anr	-831
board	-832
▁notification	-833
▁indic	-834
▁bo	-835
ashboard	-836
▁ye	-837
▁olu	-838
▁integracion	-839
stur	-840
▁olustur	-841
▁table	-842
▁deite	-843
▁pai	-844
▁shuju	-845
▁generation	-846
▁gra	-847
▁deet	-848
▁base	-849
▁toast	-850
ados	-851
▁dados	-852
▁pagina	-853
yeol	-854
▁ref	-855
que	-856
ly	-857
ento	-858
ek	-859
▁datos	-860
▁don	-861
nees	-862
▁donnees	-863
▁asap	-864
▁Ad	-865
▁para	-866
rim	-867
▁bi	-868
▁acil	-869
ick	-870
ickly	-871
▁quickly	-872
▁ts	-873
▁and	-874
▁sh	-875
▁seo	-876
▁Refac	-877
ass	-878
▁Cre	-879
▁mess	-880
▁sch	-881
▁an	-882
tori	-883
cture	-884
one	-885
fen	-886
▁configuration	-887
▁Fehler	-888
ure	-889
▁entegras	-890
eat	-891
ulne	-892
▁vulne	-893
▁vulnerab	-894
▁feat	-895
▁feature	-896
▁bil	-897
▁component	-898
qing	-899
sive	-900
reib	-901
mment	-902
▁oze	-903
dirm	-904
jian	-905
▁tesuto	-906
▁teseuteu	-907
▁testy	-908
ita	-909
rabot	-910
rav	-911
▁ceshi	-912
▁ekle	-913
vi	-914
▁Cor	-915
▁testes	-916
jeong	-917
▁kyuu	-918
mel	-919
▁yapil	-920
estir	-921
▁L	-922
ito	-923
▁hem	-924
onghagi	-925
▁hemen	-926
be	-927
▁hadi	-928
erb	-929
ktu	-930
▁please	-931
▁N	-932
zt	-933
ern	-934
▁manej	-935
bi	-936
mdi	-937
▁simdi	-938
okument	-939
kt	-940
▁now	-941
ige	-942
lung	-943
onente	-944
yeon	-945
▁fuer	-946
▁report	-947
yonu	-948
neng	-949
▁mi	-950
▁lut	-951
▁lutfen	-952
du	-953
▁opt	-954
ger	-955
rieren	-956
gration	-957
dement	-958
▁rapidement	-959
ser	-960
▁opti	-961
▁us	-962
way	-963
ht	-964
ord	-965
ven	-966
▁pour	-967
ght	-968
▁ve	-969
ex	-970
▁away	-971
▁right	-972
▁migration	-973
age	-974
eck	-975
miento	-976
ell	-977
urry	-978
▁hurry	-979
▁schn	-980
▁schnell	-981
integration	-982
ring	-983
ication	-984
▁Pro	-985
▁limi	-986
▁infini	-987
oshi	-988
uman	-989
▁dokuman	-990
oseo	-991
▁lazy	-992
so	-993
alizar	-994
hon	-995
▁profil	-996
▁dring	-997
▁dringend	-998
nost	-999
▁guven	-1000
up	-1001
ici	-1002
▁sayf	-1003
sh	-1004
lag	-1005
▁ka	-1006
▁fon	-1007
tar	-1008
roll	-1009
▁mot	-1010
▁urgent	-1011
▁funcion	-1012
▁dashboard	-1013
shit	-1014
eshon	-1015
▁xian	-1016
nye	-1017
croll	-1018
▁admin	-1019
alt	-1020
xian	-1021
digo	-1022
▁peij	-1023
▁codigo	-1024
▁au	-1025
▁login	-1026
ca	-1027
fik	-1028
▁auten	-1029
gung	-1030
enie	-1031
achrich	-1032
▁formula	-1033
ule	-1034
▁jin	-1035
stellung	-1036
▁verific	-1037
ging	-1038
amento	-1039
cription	-1040
▁mig	-1041
▁be	-1042
yste	-1043
▁obrabot	-1044
pload	-1045
▁deeta	-1046
▁integracao	-1047
▁pa	-1048
▁map	-1049
esu	-1050
▁puro	-1051
▁deiteo	-1052
▁registro	-1053
▁migrac	-1054
ongzhi	-1055
oto	-1056
▁pres	-1057
▁estado	-1058
▁sistema	-1059
▁flu	-1060
▁present	-1061
▁integrar	-1062
ufu	-1063
arios	-1064
eej	-1065
eso	-1066
eeji	-1067
amam	-1068
▁tamam	-1069
lig	-1070
ligini	-1071
▁tamamla	-1072
ato	-1073
yonunu	-1074
▁by	-1075
mpro	-1076
mprove	-1077
▁ag	-1078
▁Improve	-1079
▁bystro	-1080
seo	-1081
chno	-1082
lja	-1083
▁sro	-1084
▁srochno	-1085
▁ot	-1086
▁Add	-1087
▁kap	-1088
▁saku	-1089
etzt	-1090
▁jetzt	-1091
▁Complete	-1092
ett	-1093
▁jian	-1094
ettre	-1095
▁iy	-1096
▁yapilan	-1097
▁iyil	-1098
▁iyilestir	-1099
▁mon	-1100
▁sof	-1101
itoring	-1102
▁vite	-1103
▁monitoring	-1104
▁main	-1105
eom	-1106
▁sofort	-1107
▁tas	-1108
▁seol	-1109
tenant	-1110
▁maintenant	-1111
▁optimi	-1112
▁bit	-1113
▁bitte	-1114
▁pla	-1115
our	-1116
tualizar	-1117
▁plait	-1118
▁ah	-1119
▁ahora	-1120
tor	-1121
▁jour	-1122
rat	-1123
urs	-1124
reurs	-1125
▁erreurs	-1126
ev	-1127
ling	-1128
▁debug	-1129
ica	-1130
rop	-1131
rastructure	-1132
▁do	-1133
yi	-1134
plo	-1135
▁alt	-1136
ance	-1137
ploy	-1138
▁jak	-1139
yap	-1140
▁altyap	-1141
ksi	-1142
crib	-1143
lik	-1144
cribir	-1145
▁qing	-1146
▁deploy	-1147
▁dokumantas	-1148
▁performance	-1149
reiben	-1150
▁comment	-1151
▁guvenlik	-1152
▁schreiben	-1153
iss	-1154
bhi	-1155
▁geu	-1156
▁geubhi	-1157
engse	-1158
engseong	-1159
▁saengseong	-1160
yu	-1161
za	-1162
▁cha	-1163
▁ku	-1164
▁ja	-1165
▁sakusei	-1166
▁kod	-1167
au	-1168
mas	-1169
odo	-1170
utar	-1171
▁nem	-1172
lenno	-1173
▁nemede	-1174
▁nemedelenno	-1175
utaringu	-1176
cht	-1177
rity	-1178
▁agora	-1179
▁erro	-1180
▁security	-1181
▁bus	-1182
pal	-1183
palli	-1184
▁ppalli	-1185
▁performans	-1186
ada	-1187
oshib	-1188
▁oshib	-1189
essen	-1190
▁seoljeong	-1191
In	-1192
liessen	-1193
ych	-1194
ychas	-1195
▁seychas	-1196
▁geom	-1197
aluy	-1198
▁pozh	-1199
aluysta	-1200
▁pozhaluysta	-1201
meli	-1202
▁verb	-1203
essern	-1204
▁verbessern	-1205
isu	-1206
▁Mettre	-1207
▁Mej	-1208
▁Mejorar	-1209
orer	-1210
▁Ameli	-1211
▁Ameliorer	-1212
eong	-1213
▁Refactori	-1214
cre	-1215
▁manejo	-1216
▁ne	-1217
apis	-1218
crever	-1219
▁comple	-1220
lama	-1221
▁zu	-1222
▁met	-1223
▁funcionalida	-1224
▁res	-1225
beh	-1226
behand	-1227
behandlung	-1228
▁les	-1229
▁Corri	-1230
▁jakse	-1231
▁jakseonghagi	-1232
▁on	-1233
gurar	-1234
raest	-1235
▁refac	-1236
▁infraest	-1237
▁Configurar	-1238
okumentation	-1239
hei	-1240
anryo	-1241
yor	-1242
igeum	-1243
▁jigeum	-1244
pon	-1245
poin	-1246
rastrukt	-1247
ice	-1248
▁end	-1249
▁seg	-1250
heits	-1251
ilida	-1252
▁respon	-1253
▁vulnerabilida	-1254
▁endpoin	-1255
▁configuracion	-1256
▁du	-1257
▁hayaku	-1258
tab	-1259
cher	-1260
oge	-1261
▁Es	-1262
▁isoge	-1263
▁auth	-1264
▁kai	-1265
▁endpoint	-1266
▁ren	-1267
mit	-1268
▁raporu	-1269
ende	-1270
▁reverse	-1271
hm	-1272
use	-1273
▁service	-1274
▁documentacion	-1275
▁componente	-1276
▁drop	-1277
▁seed	-1278
unbi	-1279
▁junbi	-1280
▁entegrasyonu	-1281
▁he	-1282
esi	-1283
▁release	-1284
▁drag	-1285
back	-1286
▁kuai	-1287
▁role	-1288
▁eoseo	-1289
▁responsive	-1290
▁di	-1291
igao	-1292
ruj	-1293
useyo	-1294
▁rate	-1295
▁juseyo	-1296
▁autocomplete	-1297
ron	-1298
▁cron	-1299
▁acc	-1300
ongneng	-1301
▁handler	-1302
▁olusturma	-1303
▁webs	-1304
▁websocket	-1305
▁componenti	-1306
▁check	-1307
▁infinite	-1308
zai	-1309
arge	-1310
▁xianzai	-1311
llback	-1312
▁uprav	-1313
▁limiter	-1314
▁bildi	-1315
▁scroll	-1316
omp	-1317
file	-1318
▁ani	-1319
▁sug	-1320
▁configuracao	-1321
alog	-1322
masi	-1323
▁Preparar	-1324
▁rollback	-1325
▁Completar	-1326
azy	-1327
▁flag	-1328
▁ima	-1329
▁sugu	-1330
▁modal	-1331
▁jinji	-1332
▁authent	-1333
leme	-1334
▁limit	-1335
argement	-1336
iz	-1337
ancheng	-1338
let	-1339
mian	-1340
▁appl	-1341
▁module	-1342
alth	-1343
▁kon	-1344
lamasi	-1345
▁health	-1346
luch	-1347
undary	-1348
▁Uluch	-1349
▁boundary	-1350
▁Uluchshit	-1351
▁haz	-1352
▁ske	-1353
leton	-1354
▁mash	-1355
▁loader	-1356
▁mashang	-1357
▁skeleton	-1358
▁eks	-1359
date	-1360
▁application	-1361
ban	-1362
▁file	-1363
▁eksport	-1364
zheng	-1365
les	-1366
▁autentic	-1367
rut	-1368
oom	-1369
han	-1370
nex	-1371
▁grafik	-1372
ator	-1373
▁ord	-1374
ech	-1375
rer	-1376
▁mai	-1377
▁indicador	-1378
va	-1379
ystem	-1380
nexion	-1381
▁connexion	-1382
▁logging	-1383
▁formulari	-1384
irla	-1385
▁orden	-1386
▁ozeti	-1387
▁techn	-1388
▁hazirla	-1389
▁algoritmo	-1390
▁yu	-1391
art	-1392
▁zh	-1393
▁upload	-1394
▁loading	-1395
yout	-1396
▁compras	-1397
▁pei	-1398
▁motor	-1399
▁peizhi	-1400
iju	-1401
ina	-1402
plan	-1403
ontrole	-1404
▁sayfasi	-1405
▁controle	-1406
▁validation	-1407
wu	-1408
tigung	-1409
▁state	-1410
enachrich	-1411
enachrichtigung	-1412
ba	-1413
▁em	-1414
iseu	-1415
▁peiji	-1416
egai	-1417
odeu	-1418
▁onegai	-1419
▁integrate	-1420
icio	-1421
▁artic	-1422
lenie	-1423
▁pagination	-1424
anel	-1425
▁infin	-1426
verso	-1427
su	-1428
elh	-1429
unit	-1430
▁Melh	-1431
▁yunit	-1432
▁Melhorar	-1433
▁jeg	-1434
▁sk	-1435
ering	-1436
▁roles	-1437
agement	-1438
▁management	-1439
teur	-1440
▁conex	-1441
▁limitador	-1442
▁rapport	-1443
▁ger	-1444
▁str	-1445
ateur	-1446
▁alrim	-1447
▁description	-1448
asshu	-1449
▁inform	-1450
vit	-1451
▁Za	-1452
▁seu	-1453
stration	-1454
▁tongzhi	-1455
uuchi	-1456
▁mode	-1457
▁geracao	-1458
▁tsuuchi	-1459
▁mo	-1460
▁notificacion	-1461
anica	-1462
▁stranica	-1463
▁tr	-1464
▁dark	-1465
▁generacija	-1466
anli	-1467
▁erros	-1468
▁trata	-1469
▁control	-1470
▁tratamento	-1471
▁notificacao	-1472
▁exportacion	-1473
eting	-1474
pooto	-1475
▁modulo	-1476
dor	-1477
ario	-1478
▁usu	-1479
▁usuario	-1480
ga	-1481
ens	-1482
zka	-1483
agru	-1484
▁carga	-1485
▁zagru	-1486
▁zagruzka	-1487
▁entegre	-1488
▁oshibok	-1489
▁presentation	-1490
ensa	-1491
▁flux	-1492
ivo	-1493
eriz	-1494
▁zhi	-1495
▁grafic	-1496
▁renderiz	-1497
▁generacion	-1498
guin	-1499
▁coment	-1500
▁roguin	-1501
▁comentarios	-1502
dir	-1503
otok	-1504
plic	-1505
jin	-1506
▁enjin	-1507
▁sho	-1508
▁geren	-1509
ft	-1510
dom	-1511
▁uve	-1512
▁filtra	-1513
▁uvedom	-1514
▁aplic	-1515
▁admini	-1516
aires	-1517
▁perfil	-1518
▁exportacao	-1519
▁shop	-1520
celle	-1521
▁gun	-1522
▁guncelle	-1523
hen	-1524
uche	-1525
▁simp	-1526
ogeu	-1527
▁simpli	-1528
zer	-1529
▁dlja	-1530
nida	-1531
ika	-1532
▁write	-1533
▁ist	-1534
▁tsu	-1535
sam	-1536
▁cal	-1537
▁pil	-1538
ign	-1539
ero	-1540
low	-1541
alisi	-1542
▁aktu	-1543
▁connec	-1544
alisieren	-1545
▁aktualisieren	-1546
▁kontrol	-1547
▁design	-1548
regar	-1549
dan	-1550
▁fonction	-1551
▁um	-1552
struktu	-1553
▁umstruktu	-1554
▁umstrukturieren	-1555
▁integrer	-1556
cut	-1557
evcut	-1558
▁ein	-1559
richten	-1560
▁einrichten	-1561
▁bas	-1562
jou	-1563
jouter	-1564
ist	-1565
▁Mevcut	-1566
▁ni	-1567
stellen	-1568
▁erstellen	-1569
lica	-1570
▁cre	-1571
ktion	-1572
▁integrieren	-1573
▁exist	-1574
▁integri	-1575
deu	-1576
▁kodeu	-1577
daki	-1578
ifi	-1579
inz	-1580
egen	-1581
▁hinz	-1582
ufuegen	-1583
▁hinzufuegen	-1584
ire	-1585
▁existing	-1586
▁sp	-1587
ider	-1588
▁gider	-1589
asyonun	-1590
▁hatayi	-1591
asyonundaki	-1592
yer	-1593
▁beogeu	-1594
aire	-1595
▁sek	-1596
▁rev	-1597
agu	-1598
yonel	-1599
▁kur	-1600
rik	-1601
▁dans	-1602
hin	-1603
▁rip	-1604
▁kapat	-1605
▁refak	-1606
▁fonksi	-1607
▁docs	-1608
▁miss	-1609
uga	-1610
igini	-1611
▁chuga	-1612
▁acigini	-1613
yonelligini	-1614
▁mun	-1615
isini	-1616
▁munseo	-1617
▁Fi	-1618
oshin	-1619
▁kooshin	-1620
▁mu	-1621
▁altyapisini	-1622
▁missing	-1623
▁entegrasyonunu	-1624
▁tsuika	-1625
▁Fix	-1626
xin	-1627
▁Ek	-1628
▁gye	-1629
engxin	-1630
▁Eksik	-1631
nyj	-1632
▁ozel	-1633
▁ozelligini	-1634
▁desp	-1635
▁koodo	-1636
angjian	-1637
uan	-1638
zen	-1639
▁handling	-1640
▁Up	-1641
iufu	-1642
▁function	-1643
▁wend	-1644
▁wendang	-1645
unu	-1646
▁Update	-1647
fak	-1648
sti	-1649
▁rifak	-1650
▁rifakutaringu	-1651
▁prover	-1652
gir	-1653
▁Write	-1654
cha	-1655
▁tai	-1656
jia	-1657
▁Set	-1658
ianjia	-1659
▁infrastructure	-1660
▁jiancha	-1661
▁yen	-1662
anchu	-1663
▁functional	-1664
iteu	-1665
obde	-1666
▁eobde	-1667
▁Prepare	-1668
▁eobdeiteu	-1669
▁functionality	-1670
timini	-1671
▁Create	-1672
enini	-1673
loj	-1674
▁yone	-1675
▁const	-1676
▁yonetimini	-1677
fou	-1678
rehen	-1679
atorar	-1680
ongfou	-1681
rehensive	-1682
▁comprehensive	-1683
▁biles	-1684
▁constru	-1685
▁bilesenini	-1686
op	-1687
asu	-1688
riar	-1689
▁escribir	-1690
▁Cl	-1691
asini	-1692
dirmasini	-1693
▁nastro	-1694
▁Refactor	-1695
adab	-1696
▁readab	-1697
▁readability	-1698
ep	-1699
▁Close	-1700
▁kodunu	-1701
▁vulnerability	-1702
iden	-1703
▁bagu	-1704
▁yeniden	-1705
iji	-1706
▁sei	-1707
toring	-1708
▁testler	-1709
beri	-1710
jet	-1711
▁projet	-1712
▁yapilandir	-1713
jo	-1714
zop	-1715
▁ge	-1716
zopas	-1717
▁eo	-1718
▁bao	-1719
aima	-1720
▁daima	-1721
▁performansini	-1722
appu	-1723
toappu	-1724
▁settoappu	-1725
▁boan	-1726
▁ec	-1727
samli	-1728
▁kapsamli	-1729
rire	-1730
▁ecrire	-1731
▁hu	-1732
▁jeong	-1733
▁hi	-1734
▁refactor	-1735
▁esta	-1736
▁optimize	-1737
▁fix	-1738
▁zero	-1739
regir	-1740
▁Corregir	-1741
▁implementacion	-1742
▁fail	-1743
▁absch	-1744
Integration	-1745
▁abschliessen	-1746
▁escrever	-1747
Konfigur	-1748
Konfiguration	-1749
▁Com	-1750
bler	-1751
▁faille	-1752
▁Combler	-1753
▁securite	-1754
▁cok	-1755
▁need	-1756
bere	-1757
▁beh	-1758
▁Ag	-1759
▁Agregar	-1760
▁funcionalidad	-1761
apishi	-1762
▁napishi	-1763
ace	-1764
Fehler	-1765
Fehlerbehandlung	-1766
zel	-1767
iten	-1768
▁vor	-1769
bereiten	-1770
▁vorbereiten	-1771
Dokumentation	-1772
▁pl	-1773
▁lis	-1774
zelt	-1775
ances	-1776
▁performances	-1777
inf	-1778
▁place	-1779
▁duzelt	-1780
▁Ter	-1781
miner	-1782
▁Terminer	-1783
mf	-1784
▁der	-1785
ibil	-1786
▁Umf	-1787
assende	-1788
▁Umfassende	-1789
aege	-1790
ullan	-1791
aegeuto	-1792
aegeutoling	-1793
▁ripaegeutoling	-1794
Si	-1795
ecke	-1796
Sicher	-1797
luecke	-1798
Sicherheits	-1799
▁schliessen	-1800
infrastructure	-1801
▁Actualizar	-1802
eben	-1803
▁Den	-1804
ierung	-1805
ibilite	-1806
▁beheben	-1807
Implement	-1808
▁lisibilite	-1809
▁Refactoriser	-1810
Implementierung	-1811
Lei	-1812
Leist	-1813
Leistung	-1814
▁Cer	-1815
▁Refactorizar	-1816
dad	-1817
uri	-1818
uridad	-1819
▁Cerrar	-1820
implement	-1821
▁Corriger	-1822
▁seguridad	-1823
implementation	-1824
▁vulnerabilidad	-1825
bar	-1826
Code	-1827
keit	-1828
▁Les	-1829
barkeit	-1830
▁Lesbarkeit	-1831
osant	-1832
▁Creer	-1833
▁composant	-1834
ctura	-1835
Inf	-1836
▁tek	-1837
rastruktur	-1838
Infrastruktur	-1839
ructura	-1840
▁infraestructura	-1841
ui	-1842
▁guh	-1843
▁suje	-1844
▁kullan	-1845
▁guhyeon	-1846
▁sujeonghagi	-1847
anryoo	-1848
▁kanryoo	-1849
▁uy	-1850
▁Crear	-1851
▁Escribir	-1852
▁completas	-1853
nalite	-1854
▁Ajouter	-1855
▁fonctionnalite	-1856
▁Gengxin	-1857
gin	-1858
base	-1859
▁col	-1860
▁ze	-1861
arch	-1862
ork	-1863
▁gine	-1864
▁gineung	-1865
oud	-1866
▁So	-1867
riti	-1868
▁fus	-1869
▁zeij	-1870
yuriti	-1871
yakusei	-1872
▁access	-1873
▁fusagu	-1874
▁sekyuriti	-1875
▁zeijyakusei	-1876
get	-1877
quan	-1878
▁tok	-1879
uanbi	-1880
▁loud	-1881
▁Guanbi	-1882
▁anquan	-1883
▁loudong	-1884
▁Preparer	-1885
Fun	-1886
orum	-1887
▁und	-1888
alita	-1889
crire	-1890
alitaet	-1891
▁Ecrire	-1892
Funktion	-1893
▁complets	-1894
Funktionalitaet	-1895
▁dos	-1896
zd	-1897
zdat	-1898
▁eng	-1899
rovat	-1900
▁komp	-1901
▁Sozdat	-1902
▁engine	-1903
▁komponent	-1904
▁integrirovat	-1905
▁veritab	-1906
tei	-1907
ginx	-1908
▁search	-1909
▁settei	-1910
ject	-1911
read	-1912
▁token	-1913
▁tablo	-1914
lection	-1915
▁project	-1916
▁top	-1917
▁rendi	-1918
▁rendimiento	-1919
rics	-1920
▁parser	-1921
▁user	-1922
oo	-1923
▁plani	-1924
▁metrics	-1925
▁Atualizar	-1926
▁X	-1927
based	-1928
lant	-1929
▁kaite	-1930
▁proje	-1931
eomp	-1932
▁mit	-1933
onteu	-1934
▁keomp	-1935
oneonteu	-1936
▁collection	-1937
▁keomponeonteu	-1938
inoo	-1939
▁her	-1940
▁kinoo	-1941
▁tasla	-1942
▁yorum	-1943
Pipeline	-1944
▁kay	-1945
▁xie	-1946
posta	-1947
▁metrik	-1948
▁xing	-1949
▁Tigao	-1950
▁nginx	-1951
▁Wancheng	-1952
▁xingneng	-1953
bei	-1954
hun	-1955
jeo	-1956
ehan	-1957
▁pog	-1958
abase	-1959
jeoin	-1960
▁Zhun	-1961
▁notu	-1962
▁daehan	-1963
▁pogoal	-1964
▁Tianjia	-1965
▁Zhunbei	-1966
▁database	-1967
▁gongneng	-1968
▁altyapisi	-1969
▁pogoaljeoin	-1970
▁toplama	-1971
nik	-1972
▁In	-1973
▁teknik	-1974
usu	-1975
heet	-1976
▁Chu	-1977
▁bing	-1978
▁uygu	-1979
erence	-1980
▁yazisi	-1981
▁zujian	-1982
▁Chuangjian	-1983
▁Ro	-1984
teki	-1985
▁wid	-1986
asyonu	-1987
▁dokumantasyon	-1988
ct	-1989
ks	-1990
are	-1991
Komp	-1992
reads	-1993
▁cont	-1994
▁kaku	-1995
▁taiou	-1996
▁script	-1997
▁spreads	-1998
Komponente	-1999
▁spreadsheet	-2000
ilen	-2001
▁flow	-2002
masyon	-2003
▁animasyon	-2004
fa	-2005
work	-2006
▁job	-2007
endar	-2008
▁Xiufu	-2009
▁zhong	-2010
▁widget	-2011
▁shixian	-2012
▁calendar	-2013
mm	-2014
ral	-2015
tel	-2016
izvo	-2017
▁pap	-2018
ditel	-2019
▁profile	-2020
▁proizvo	-2021
ditelnost	-2022
▁algorithm	-2023
▁validasyonu	-2024
ffs	-2025
deme	-2026
dirme	-2027
kilen	-2028
▁Prov	-2029
▁odeme	-2030
▁modulu	-2031
yt	-2032
hua	-2033
ical	-2034
▁yet	-2035
▁koda	-2036
▁sort	-2037
▁message	-2038
▁sorting	-2039
ekku	-2040
alama	-2041
ifizi	-2042
onento	-2043
▁anali	-2044
▁konpo	-2045
▁rapor	-2046
Authent	-2047
▁chekku	-2048
▁herusu	-2049
▁taslagi	-2050
ifizierung	-2051
▁reference	-2052
▁veritabani	-2053
▁konpoonento	-2054
AC	-2055
BAC	-2056
jie	-2057
▁ap	-2058
▁ta	-2059
hmus	-2060
▁pej	-2061
▁RBAC	-2062
▁lian	-2063
▁quan	-2064
▁Sortie	-2065
▁pejina	-2066
ralgorit	-2067
▁lianjie	-2068
▁yetkilen	-2069
ralgorithmus	-2070
▁pejinaeshon	-2071
▁yetkilendirme	-2072
enz	-2073
begr	-2074
dialog	-2075
enzung	-2076
▁Raten	-2077
▁paneli	-2078
begrenzung	-2079
▁Ratenbegrenzung	-2080
ansu	-2081
eule	-2082
foom	-2083
ures	-2084
▁ses	-2085
duler	-2086
ksnye	-2087
apisat	-2088
euleum	-2089
▁carreg	-2090
▁kaizen	-2091
▁komple	-2092
▁pafoom	-2093
▁Napisat	-2094
▁heuleum	-2095
▁scheduler	-2096
▁technical	-2097
▁connection	-2098
▁pafoomansu	-2099
▁kompleksnye	-2100
▁carregamento	-2101
ef	-2102
agra	-2103
mail	-2104
▁sun	-2105
ainer	-2106
rutura	-2107
▁gyeye	-2108
▁kaesi	-2109
▁analizi	-2110
▁container	-2111
▁infraestrutura	-2112
ars	-2113
red	-2114
rame	-2115
▁mek	-2116
▁email	-2117
▁notes	-2118
xie	-2119
raft	-2120
▁Wei	-2121
▁bian	-2122
▁post	-2123
lenija	-2124
▁input	-2125
▁layer	-2126
▁bianxie	-2127
▁Provesti	-2128
▁quanmian	-2129
▁refaktoring	-2130
▁upravlenija	-2131
▁authentication	-2132
rita	-2133
▁kayit	-2134
▁harita	-2135
▁kullanici	-2136
esib	-2137
▁Proje	-2138
▁sunum	-2139
▁daesib	-2140
▁sayfalama	-2141
▁daesibodeu	-2142
elle	-2143
llen	-2144
rimi	-2145
▁For	-2146
▁setup	-2147
ramework	-2148
▁bildirimi	-2149
wei	-2150
basi	-2151
erte	-2152
ffsk	-2153
ugri	-2154
▁bri	-2155
▁stru	-2156
export	-2157
▁Zugri	-2158
▁draft	-2159
▁Rollen	-2160
▁danwei	-2161
basierte	-2162
ontrolle	-2163
▁Corrigir	-2164
▁Zugriffsk	-2165
▁uygulamasi	-2166
▁implementacao	-2167
▁Rollenbasierte	-2168
ci	-2169
ta	-2170
yet	-2171
releme	-2172
▁servisi	-2173
▁filtreleme	-2174
eux	-2175
ism	-2176
loc	-2177
sts	-2178
etat	-2179
esseux	-2180
ratnyj	-2181
▁proksi	-2182
▁obratnyj	-2183
▁paresseux	-2184
▁chargement	-2185
ces	-2186
ruk	-2187
sto	-2188
▁wu	-2189
aniz	-2190
ouwu	-2191
▁Pod	-2192
▁che	-2193
▁tri	-2194
anism	-2195
uyruk	-2196
▁Lazy	-2197
▁Load	-2198
▁gund	-2199
▁mech	-2200
▁brief	-2201
▁gouwu	-2202
▁produ	-2203
▁wanryo	-2204
▁wuxian	-2205
anizmasi	-2206
▁Loading	-2207
▁gundong	-2208
▁mechanism	-2209
▁Datenexport	-2210
▁mekanizmasi	-2211
tok	-2212
chik	-2213
▁ass	-2214
Panel	-2215
▁mali	-2216
▁Admin	-2217
▁maliyet	-2218
▁webhookov	-2219
▁obrabotchik	-2220
eue	-2221
kum	-2222
▁sira	-2223
bankum	-2224
geures	-2225
obiseu	-2226
▁renzheng	-2227
▁siralama	-2228
geuresyeon	-2229
▁progresso	-2230
▁Datenbankum	-2231
▁algoritmasi	-2232
▁deiteobiseu	-2233
▁maigeuresyeon	-2234
izi	-2235
▁En	-2236
jani	-2237
olli	-2238
▁nag	-2239
izimi	-2240
▁bazy	-2241
janiem	-2242
▁sosto	-2243
tokolli	-2244
▁cizimi	-2245
▁nagare	-2246
ification	-2247
▁migracija	-2248
▁Protokolli	-2249
▁upravlenie	-2250
▁sostojaniem	-2251
▁autenticacao	-2252
▁Protokollierung	-2253
des	-2254
▁Na	-2255
arim	-2256
kang	-2257
▁pay	-2258
lantisi	-2259
▁kuyruk	-2260
▁tasarim	-2261
▁jiankang	-2262
▁indicator	-2263
▁structure	-2264
▁baglantisi	-2265
got	-2266
oln	-2267
toz	-2268
▁av	-2269
ovit	-2270
▁bar	-2271
aciju	-2272
apoln	-2273
▁avtoz	-2274
gotovit	-2275
▁inicio	-2276
▁sesion	-2277
▁system	-2278
apolnenie	-2279
▁bildirim	-2280
▁dokument	-2281
▁Podgotovit	-2282
▁dokumentaciju	-2283
▁avtozapolnenie	-2284
anze	-2285
▁pom	-2286
bavit	-2287
hyose	-2288
kcion	-2289
▁Test	-2290
▁tele	-2291
alnost	-2292
tsanze	-2293
▁Forts	-2294
▁arama	-2295
▁geomsa	-2296
▁motoru	-2297
hyoseong	-2298
▁Dobavit	-2299
tsanzeige	-2300
▁funkcion	-2301
▁Fortschrit	-2302
▁yuhyoseong	-2303
▁funkcionalnost	-2304
API	-2305
hme	-2306
ris	-2307
war	-2308
▁To	-2309
▁CSS	-2310
▁gib	-2311
chier	-2312
▁Toast	-2313
▁telech	-2314
▁fichier	-2315
▁algorithme	-2316
▁telechargement	-2317
Benachrichtigung	-2318
ili	-2319
edin	-2320
soedin	-2321
▁filter	-2322
soedinenie	-2323
gre	-2324
nalis	-2325
▁logs	-2326
▁conexion	-2327
nalisation	-2328
▁journalisation	-2329
eni	-2330
ude	-2331
uux	-2332
▁yi	-2333
lang	-2334
▁ked	-2335
▁jido	-2336
import	-2337
uuxing	-2338
▁saude	-2339
▁tigao	-2340
tabelle	-2341
▁Chongfou	-2342
▁filtering	-2343
▁keduuxing	-2344
▁validacao	-2345
▁formulario	-2346
▁verificacao	-2347
▁Datentabelle	-2348
emp	-2349
huce	-2350
ineis	-2351
onghu	-2352
▁ping	-2353
▁zhuce	-2354
▁yonghu	-2355
ineisyeon	-2356
▁registration	-2357
▁peijineisyeon	-2358
eop	-2359
hal	-2360
geun	-2361
▁aep	-2362
▁sur	-2363
▁tak	-2364
eburu	-2365
▁jeop	-2366
▁yeok	-2367
gerlen	-2368
stroit	-2369
▁giban	-2370
▁jegeo	-2371
▁queue	-2372
dirmesi	-2373
▁payment	-2374
▁teeburu	-2375
▁yeokhal	-2376
▁Nastroit	-2377
▁chaeting	-2378
▁degerlen	-2379
▁jeopgeun	-2380
▁framework	-2381
rastrukturu	-2382
▁infrastrukturu	-2383
▁degerlendirmesi	-2384
lun	-2385
umb	-2386
vent	-2387
▁xit	-2388
filter	-2389
▁layout	-2390
▁xitong	-2391
▁pinglun	-2392
▁yunitto	-2393
filterung	-2394
▁structured	-2395
▁Datenfilterung	-2396
eon	-2397
olv	-2398
ust	-2399
enho	-2400
rito	-2401
▁mes	-2402
eseon	-2403
▁acik	-2404
▁deng	-2405
▁mian	-2406
▁urun	-2407
empenho	-2408
▁guanli	-2409
▁carrito	-2410
▁gaeseon	-2411
▁inverse	-2412
▁mianban	-2413
▁ordenacao	-2414
▁seongneng	-2415
▁aciklamasi	-2416
▁desempenho	-2417
ow	-2418
ulo	-2419
etge	-2420
rang	-2421
▁fir	-2422
acces	-2423
entes	-2424
eutem	-2425
▁bord	-2426
etgeul	-2427
mation	-2428
stests	-2429
amiento	-2430
▁abrang	-2431
▁descri	-2432
▁dialog	-2433
▁tableau	-2434
▁Escrever	-2435
▁articulo	-2436
▁daetgeul	-2437
▁siseutem	-2438
▁paginacion	-2439
▁Integration	-2440
▁abrangentes	-2441
▁ordenamiento	-2442
An	-2443
Anw	-2444
eul	-2445
gao	-2446
rin	-2447
vim	-2448
bang	-2449
beit	-2450
bodo	-2451
oksi	-2452
▁Ref	-2453
▁ins	-2454
▁rog	-2455
▁yan	-2456
ement	-2457
hyang	-2458
queda	-2459
▁Blog	-2460
▁Chat	-2461
▁peul	-2462
▁yeog	-2463
Anwend	-2464
▁debit	-2465
▁sheng	-2466
beitrag	-2467
▁baogao	-2468
▁dasshu	-2469
▁takvim	-2470
▁biaodan	-2471
▁rogingu	-2472
Anwendung	-2473
banghyang	-2474
▁busqueda	-2475
▁limiteur	-2476
▁paiement	-2477
▁peuloksi	-2478
▁yanzheng	-2479
▁dasshubodo	-2480
▁shengcheng	-2481
▁Blogbeitrag	-2482
iy	-2483
ages	-2484
laza	-2485
▁flags	-2486
▁guolv	-2487
essment	-2488
▁denglu	-2489
▁yemian	-2490
▁product	-2491
▁desplaza	-2492
▁infinito	-2493
▁animation	-2494
▁assessment	-2495
▁autenticacion	-2496
▁desplazamiento	-2497
xu	-2498
bes	-2499
ibu	-2500
wiy	-2501
yec	-2502
agje	-2503
anfa	-2504
endi	-2505
ruch	-2506
usei	-2507
voll	-2508
▁tos	-2509
besch	-2510
ibuel	-2511
issou	-2512
pcion	-2513
yecto	-2514
▁Auto	-2515
▁haek	-2516
agjeom	-2517
racija	-2518
tenumb	-2519
▁Cache	-2520
▁chwiy	-2521
▁paixu	-2522
ktbesch	-2523
reibung	-2524
staendi	-2525
vervoll	-2526
▁defile	-2527
▁jissou	-2528
▁suanfa	-2529
▁inverso	-2530
▁shuusei	-2531
▁teibuel	-2532
▁haekyeol	-2533
▁proyecto	-2534
▁toseuteu	-2535
tenumbruch	-2536
staendigung	-2537
▁defilement	-2538
▁filtracija	-2539
▁validacion	-2540
▁Autovervoll	-2541
▁chwiyagjeom	-2542
▁descripcion	-2543
▁formularios	-2544
▁Projektbesch	-2545
▁verificacion	-2546
▁Seitenumbruch	-2547
uz	-2548
ico	-2549
sis	-2550
dien	-2551
firu	-2552
tsuz	-2553
util	-2554
▁dao	-2555
naire	-2556
cionar	-2557
▁busca	-2558
▁peeji	-2559
tsuzoku	-2560
▁daochu	-2561
▁servico	-2562
▁purofiru	-2563
▁Adicionar	-2564
▁setsuzoku	-2565
▁gestionnaire	-2566
▁funcionalidade	-2567
cn	-2568
iq	-2569
aly	-2570
iqì	-2571
cnica	-2572
kleme	-2573
lange	-2574
rinho	-2575
tesch	-2576
uliqì	-2577
tenwar	-2578
▁dosya	-2579
▁couche	-2580
▁tanchu	-2581
▁chuliqì	-2582
▁tecnica	-2583
▁Nachrich	-2584
▁carrinho	-2585
teschlange	-2586
▁Nachrichtenwar	-2587
jka	-2588
upa	-2589
voj	-2590
esso	-2591
hema	-2592
ancun	-2593
stupa	-2594
▁ceng	-2595
▁acesso	-2596
▁papeis	-2597
▁skhema	-2598
▁baseado	-2599
▁dostupa	-2600
▁huancun	-2601
▁rolevoj	-2602
▁nastrojka	-2603
Set	-2604
▁An	-2605
eite	-2606
keul	-2607
ovka	-2608
Setup	-2609
▁kart	-2610
keulol	-2611
meldes	-2612
▁gyeol	-2613
▁muhan	-2614
▁otris	-2615
jeongseo	-2616
▁testing	-2617
▁Anmeldes	-2618
▁grafikov	-2619
▁gyeolche	-2620
▁otrisovka	-2621
▁seukeulol	-2622
▁integracija	-2623
▁Anmeldeseite	-2624
▁muhanjeongseo	-2625
Rend	-2626
▁doky	-2627
▁util	-2628
abeesu	-2629
agramm	-2630
umento	-2631
▁analy	-2632
isateur	-2633
▁maigre	-2634
Rendering	-2635
▁Diagramm	-2636
▁progreso	-2637
▁deetabeesu	-2638
▁dokyumento	-2639
▁paginacija	-2640
▁inscription	-2641
▁maigreeshon	-2642
▁utilisateur	-2643
La	-2644
apa	-2645
atm	-2646
dul	-2647
tae	-2648
wan	-2649
ands	-2650
enij	-2651
anija	-2652
kator	-2653
modul	-2654
obsch	-2655
wanin	-2656
▁capa	-2657
▁cost	-2658
▁katm	-2659
▁oche	-2660
▁sang	-2661
▁sloj	-2662
Layout	-2663
▁keshi	-2664
▁hwanin	-2665
rovanija	-2666
▁ochered	-2667
▁sangtae	-2668
▁soobsch	-2669
▁yukleme	-2670
▁Dashboard	-2671
▁indikator	-2672
▁progressa	-2673
▁soobschenij	-2674
▁keshirovanija	-2675
▁integracionnye	-2676
xa	-2677
suo	-2678
anca	-2679
vaja	-2680
▁sou	-2681
▁yin	-2682
arias	-2683
echar	-2684
▁leni	-2685
▁mapa	-2686
▁taxa	-2687
purain	-2688
uranca	-2689
▁chart	-2690
▁Fechar	-2691
▁sousuo	-2692
▁yinqing	-2693
▁Testplan	-2694
▁lenivaja	-2695
▁paipurain	-2696
▁seguranca	-2697
▁unitarias	-2698
▁vulnerabilidade	-2699
erg	-2700
ariev	-2701
▁pago	-2702
▁emerg	-2703
▁article	-2704
▁komment	-2705
▁analysis	-2706
▁emergente	-2707
▁kommentariev	-2708
aot	-2709
Sche	-2710
idad	-2711
ingy	-2712
▁Zah	-2713
▁yib	-2714
lungs	-2715
ragem	-2716
Schema	-2717
aotian	-2718
▁event	-2719
▁veloc	-2720
▁yingy	-2721
▁yibiao	-2722
▁informe	-2723
▁tablica	-2724
▁Zahlungs	-2725
▁liaotian	-2726
▁yingyong	-2727
▁filtragem	-2728
▁rendering	-2729
▁velocidad	-2730
▁Zahlungsmodul	-2731
▁Te	-2732
abela	-2733
abisu	-2734
lagem	-2735
rovki	-2736
▁Criar	-2737
▁sorti	-2738
▁tabela	-2739
▁katmani	-2740
▁reverso	-2741
▁rolagem	-2742
▁saabisu	-2743
▁algoritm	-2744
▁infinita	-2745
▁obrabotku	-2746
▁paginacao	-2747
▁sortirovki	-2748
Er	-2749
gyo	-2750
izu	-2751
kus	-2752
▁me	-2753
▁vs	-2754
eisu	-2755
pula	-2756
▁Kom	-2757
check	-2758
▁akus	-2759
▁bari	-2760
▁mani	-2761
▁beisu	-2762
▁chizu	-2763
▁rooru	-2764
mentars	-2765
pulador	-2766
▁seigyo	-2767
▁akusesu	-2768
Erstellung	-2769
▁Refatorar	-2770
▁Kommentars	-2771
▁manipulador	-2772
▁Kommentarsystem	-2773
aja	-2774
esk	-2775
krut	-2776
▁besk	-2777
chnaja	-2778
krutka	-2779
▁beskone	-2780
▁informes	-2781
▁prokrutka	-2782
▁beskonechnaja	-2783
jes	-2784
riz	-2785
ateu	-2786
hoda	-2787
▁Ges	-2788
▁kyu	-2789
osuto	-2790
sdien	-2791
seite	-2792
tifik	-2793
▁Zaver	-2794
▁vhoda	-2795
sdienst	-2796
yeoring	-2797
▁Gesund	-2798
▁Profil	-2799
▁chateu	-2800
▁mesiji	-2801
▁toosuto	-2802
heitscheck	-2803
▁Zavershit	-2804
▁Profilseite	-2805
▁integraciju	-2806
▁rendyeoring	-2807
▁q	-2808
tem	-2809
umu	-2810
vos	-2811
▁hy	-2812
euro	-2813
oomu	-2814
ianyi	-2815
▁cada	-2816
chivos	-2817
deshon	-2818
▁foomu	-2819
▁peuro	-2820
▁qianyi	-2821
▁shujuku	-2822
▁archivos	-2823
▁cadastro	-2824
▁peuropil	-2825
▁profilja	-2826
▁barideshon	-2827
▁formulaire	-2828
▁importacao	-2829
▁indicateur	-2830
▁progression	-2831
fu	-2832
kis	-2833
chts	-2834
oriz	-2835
puri	-2836
baasu	-2837
kishi	-2838
okuai	-2839
▁Beri	-2840
chtser	-2841
▁apuri	-2842
▁flujo	-2843
▁zhifu	-2844
▁chatto	-2845
▁mokuai	-2846
ciamento	-2847
▁eventos	-2848
▁ribaasu	-2849
▁tablero	-2850
▁purokishi	-2851
▁Berichtser	-2852
▁gerenciamento	-2853
lz	-2854
Pro	-2855
ins	-2856
oro	-2857
ansi	-2858
chet	-2859
itel	-2860
kuro	-2861
kusu	-2862
lzov	-2863
ouji	-2864
ugen	-2865
▁fai	-2866
▁arug	-2867
▁cola	-2868
▁nins	-2869
atelja	-2870
chetov	-2871
eransi	-2872
guresu	-2873
orosti	-2874
▁Techn	-2875
▁ekusu	-2876
▁mensa	-2877
▁mugen	-2878
▁pilte	-2879
▁sooto	-2880
kurooru	-2881
orizumu	-2882
▁hyouji	-2883
▁polzov	-2884
stracija	-2885
▁ninshou	-2886
▁mensajes	-2887
▁ogranich	-2888
▁otchetov	-2889
▁skorosti	-2890
tifikacija	-2891
▁referansi	-2892
▁sukurooru	-2893
▁ekusupooto	-2894
▁pilteoring	-2895
▁puroguresu	-2896
▁arugorizumu	-2897
▁ogranichitel	-2898
▁polzovatelja	-2899
▁registracija	-2900
▁autocompletion	-2901
▁autentifikacija	-2902
Ab	-2903
aty	-2904
peu	-2905
Abla	-2906
ante	-2907
puro	-2908
▁opl	-2909
▁zid	-2910
Ablauf	-2911
▁fairu	-2912
peurain	-2913
puroodo	-2914
▁acceso	-2915
▁basado	-2916
▁oplaty	-2917
▁zidong	-2918
▁wancheng	-2919
▁appuroodo	-2920
▁paipeurain	-2921
akr	-2922
eto	-2923
ima	-2924
jaz	-2925
ply	-2926
itaa	-2927
kima	-2928
most	-2929
▁bog	-2930
▁rel	-2931
▁rim	-2932
achat	-2933
akryt	-2934
anier	-2935
ische	-2936
jazvi	-2937
nosti	-2938
▁reeto	-2939
cherche	-2940
▁Zakryt	-2941
▁moteur	-2942
▁panier	-2943
▁ujazvi	-2944
▁bezopas	-2945
▁bogoseo	-2946
▁rimitaa	-2947
▁seukima	-2948
▁servicio	-2949
▁recherche	-2950
▁Technische	-2951
▁ujazvimost	-2952
▁bezopasnosti	-2953
▁Dokumentation	-2954
▁notificaciones	-2955
aegi	-2956
ebon	-2957
enut	-2958
enye	-2959
gist	-2960
oddo	-2961
tado	-2962
biseu	-2963
quivo	-2964
zerre	-2965
gistri	-2966
▁Benut	-2967
▁fenye	-2968
▁fluxo	-2969
▁soddo	-2970
▁jeghan	-2971
▁naebon	-2972
▁arquivo	-2973
▁seobiseu	-2974
gistrierung	-2975
▁Benutzerre	-2976
▁naebonaegi	-2977
▁firutaringu	-2978
▁autocompletado	-2979
wen	-2980
aose	-2981
▁jad	-2982
▁kor	-2983
Proxy	-2984
▁fang	-2985
▁fuwu	-2986
▁jiyu	-2987
▁wans	-2988
▁sante	-2989
▁jadong	-2990
▁jiaose	-2991
▁Reverse	-2992
▁fangwen	-2993
▁kongzhi	-2994
▁wanseong	-2995
▁verification	-2996
dl	-2997
jus	-2998
chee	-2999
oraa	-3000
kiima	-3001
plyva	-3002
planti	-3003
▁potok	-3004
juschee	-3005
▁techni	-3006
▁grafico	-3007
▁repooto	-3008
▁sukiima	-3009
▁vsplyva	-3010
▁handoraa	-3011
▁messages	-3012
▁toplanti	-3013
▁uvedomlenie	-3014
▁renderizacao	-3015
▁vsplyvajuschee	-3016
iya	-3017
orb	-3018
iyaa	-3019
▁War	-3020
jeung	-3021
enkorb	-3022
▁reiyaa	-3023
▁injeung	-3024
▁kyasshu	-3025
▁filtrage	-3026
▁Warenkorb	-3027
▁presentacion	-3028
sal	-3029
ping	-3030
raes	-3031
verw	-3032
atten	-3033
▁Zust	-3034
altung	-3035
▁Praes	-3036
attente	-3037
andsverw	-3038
entation	-3039
▁summary	-3040
▁Zustandsverw	-3041
▁Praesentation	-3042
anco	-3043
hique	-3044
▁grap	-3045
▁pain	-3046
▁banco	-3047
▁rendu	-3048
▁migracao	-3049
▁graphique	-3050
▁technique	-3051
Ex	-3052
ana	-3053
gle	-3054
pet	-3055
rio	-3056
▁xi	-3057
▁fan	-3058
Export	-3059
atorio	-3060
▁daili	-3061
▁xiang	-3062
▁conexao	-3063
▁relatorio	-3064
panel	-3065
strat	-3066
▁painel	-3067
▁servis	-3068
strativo	-3069
▁geomsal	-3070
▁graficos	-3071
▁aplicacao	-3072
▁renderizado	-3073
▁administrativo	-3074
ilu	-3075
pri	-3076
agou	-3077
feri	-3078
lozh	-3079
okup	-3080
▁tog	-3081
▁eopl	-3082
▁jilu	-3083
▁pail	-3084
ferida	-3085
▁rizhi	-3086
bericht	-3087
prilozh	-3088
▁jiagou	-3089
▁roging	-3090
▁diferida	-3091
▁eoplodeu	-3092
prilozhenie	-3093
▁Fehlerbericht	-3094
ovja	-3095
temu	-3096
▁zdor	-3097
ensaku	-3098
▁sepet	-3099
▁shisu	-3100
▁toggle	-3101
▁kensaku	-3102
▁komento	-3103
▁proverka	-3104
▁zdorovja	-3105
▁shisutemu	-3106
▁autocompletar	-3107
neau	-3108
agens	-3109
▁fila	-3110
▁mens	-3111
admini	-3112
▁mapas	-3113
▁yeong	-3114
▁panneau	-3115
▁mensagens	-3116
▁pagamento	-3117
▁yeongyeol	-3118
administration	-3119
zina	-3120
▁Date	-3121
▁cart	-3122
okupok	-3123
ysteme	-3124
▁korzina	-3125
▁pokupok	-3126
▁systeme	-3127
▁shopping	-3128
▁importacion	-3129
▁commentaires	-3130
nok	-3131
▁xu	-3132
anie	-3133
ests	-3134
irov	-3135
lito	-3136
anran	-3137
ongja	-3138
quema	-3139
urnal	-3140
▁sudu	-3141
ungnok	-3142
▁ootok	-3143
omplito	-3144
▁tubiao	-3145
irovanie	-3146
▁esquema	-3147
▁xianzhi	-3148
▁xuanran	-3149
▁zhurnal	-3150
▁deungnok	-3151
▁sayongja	-3152
▁ootokomplito	-3153
▁zhurnalirovanie	-3154
xi	-3155
jer	-3156
▁py	-3157
Schi	-3158
dlos	-3159
ilie	-3160
indu	-3161
iaoxi	-3162
vejer	-3163
Scroll	-3164
▁jindu	-3165
Schicht	-3166
▁Endlos	-3167
▁duilie	-3168
▁xiaoxi	-3169
Scrollen	-3170
▁zhibiao	-3171
▁konvejer	-3172
▁migracion	-3173
▁unitaires	-3174
aliz	-3175
Upload	-3176
▁Datei	-3177
▁messeeji	-3178
▁obrabotka	-3179
jl	-3180
sp	-3181
bag	-3182
eol	-3183
uni	-3184
zaa	-3185
▁gw	-3186
acju	-3187
jlov	-3188
▁Kar	-3189
▁yuu	-3190
eneol	-3191
novit	-3192
uroku	-3193
▁jang	-3194
baguni	-3195
▁tabla	-3196
▁Karten	-3197
▁fajlov	-3198
▁gwanli	-3199
▁yuuzaa	-3200
▁Obnovit	-3201
▁paeneol	-3202
▁touroku	-3203
▁konfigur	-3204
▁jangbaguni	-3205
▁konfiguracju	-3206
har	-3207
harai	-3208
juuru	-3209
stracion	-3210
▁mojuuru	-3211
▁shiharai	-3212
▁unitarios	-3213
▁aplicacion	-3214
▁administracion	-3215
hang	-3216
uleo	-3217
Tests	-3218
▁haende	-3219
▁haendeuleo	-3220
▁documentacao	-3221
gori	-3222
jeum	-3223
▁liu	-3224
amada	-3225
ryeol	-3226
Import	-3227
▁carte	-3228
▁algori	-3229
▁camada	-3230
▁liucheng	-3231
▁algorijeum	-3232
▁jeongryeol	-3233
nit	-3234
ular	-3235
▁filtrado	-3236
▁webhooks	-3237
▁manejador	-3238
osi	-3239
Hand	-3240
Verb	-3241
lenij	-3242
indung	-3243
▁pyosi	-3244
Handler	-3245
▁Webhook	-3246
▁jinhang	-3247
Verbindung	-3248
▁uvedomlenij	-3249
ii	-3250
acii	-3251
▁Isp	-3252
ravit	-3253
▁realiz	-3254
▁meeting	-3255
▁Ispravit	-3256
▁realizacii	-3257
▁zil	-3258
▁ziliao	-3259
▁kan	-3260
▁wen	-3261
chuan	-3262
▁Unit	-3263
▁shang	-3264
▁wenjian	-3265
▁shangchuan	-3266
▁Form	-3267
▁formy	-3268
▁validacija	-3269
uch	-3270
vali	-3271
validi	-3272
▁Formular	-3273
validierung	-3274
hui	-3275
ushui	-3276
▁kaato	-3277
▁liushui	-3278
▁shopingu	-3279
▁liushuixian	-3280
fier	-3281
chine	-3282
▁Such	-3283
maschine	-3284
▁Suchmaschine	-3285
anringu	-3286
▁chaato	-3287
▁rendanringu	-3288
eru	-3289
▁kanri	-3290
▁paneru	-3291
peeji	-3292
▁roguinpeeji	-3293
itu	-3294
▁ditu	-3295
isk	-3296
yj	-3297
▁lan	-3298
ovyj	-3299
vizh	-3300
vizhok	-3301
▁poisk	-3302
▁dvizhok	-3303
▁poiskovyj	-3304
▁nec	-3305
esito	-3306
▁necesito	-3307
▁construir	-3308
gen	-3309
esoin	-3310
▁besoin	-3311
▁or	-3312
▁refactori	-3313
▁bra	-3314
▁brauche	-3315
ayo	-3316
▁configurar	-3317
▁ent	-3318
isar	-3319
▁revisar	-3320
urar	-3321
▁pre	-3322
▁como	-3323
▁funciona	-3324
ficar	-3325
▁limp	-3326
▁simplificar	-3327
uzhno	-3328
▁nuzhno	-3329
▁fazer	-3330
▁cor	-3331
▁ti	-3332
cis	-3333
▁corri	-3334
▁lento	-3335
ciso	-3336
▁preciso	-3337
▁sde	-3338
▁sl	-3339
▁(	-3340
uyao	-3341
▁xuyao	-3342
▁doku	-3343
▁yap	-3344
hab	-3345
yohab	-3346
yohabnida	-3347
▁pilyohabnida	-3348
▁th	-3349
▁you	-3350
▁zuo	-3351
eum	-3352
eumnida	-3353
▁wei	-3354
tsuy	-3355
tsuyou	-3356
▁hitsuyou	-3357
▁she	-3358
miyor	-3359
▁calis	-3360
▁calismiyor	-3361
▁it	-3362
▁gere	-3363
▁planla	-3364
▁cle	-3365
hw	-3366
hwa	-3367
▁ver	-3368
uk	-3369
nek	-3370
tir	-3371
▁boz	-3372
▁of	-3373
ample	-3374
kiyor	-3375
▁pat	-3376
▁bozuk	-3377
iew	-3378
▁connect	-3379
ken	-3380
rom	-3381
▁from	-3382
▁gerekiyor	-3383
▁update	-3384
▁kal	-3385
▁ornek	-3386
▁slow	-3387
▁messy	-3388
▁too	-3389
▁veriyor	-3390
arla	-3391
▁how	-3392
ild	-3393
▁kodu	-3394
▁errors	-3395
gy	-3396
▁buggy	-3397
uild	-3398
ws	-3399
▁clean	-3400
▁hale	-3401
▁getir	-3402
▁bak	-3403
▁sc	-3404
▁bagla	-3405
irk	-3406
irkin	-3407
▁cirkin	-3408
▁review	-3409
▁tasarla	-3410
▁example	-3411
ake	-3412
▁secure	-3413
▁gi	-3414
▁cras	-3415
▁build	-3416
vas	-3417
▁guvenli	-3418
hed	-3419
ladi	-3420
▁yavas	-3421
▁patladi	-3422
ratch	-3423
▁create	-3424
▁scratch	-3425
▁thro	-3426
▁broken	-3427
miz	-3428
▁nas	-3429
▁crashed	-3430
▁bana	-3431
▁temiz	-3432
▁throws	-3433
▁make	-3434
▁temizle	-3435
fir	-3436
▁kaldir	-3437
zim	-3438
firdan	-3439
▁lazim	-3440
▁sifirdan	-3441
▁simplify	-3442
▁nasil	-3443
▁yapilir	-3444
▁give	-3445
▁basit	-3446
lestir	-3447
▁basitlestir	-3448
▁hiz	-3449
▁hizlica	-3450
▁planen	-3451
▁verifier	-3452
▁cayo	-3453
▁dep	-3454
▁mach	-3455
▁pas	-3456
▁wie	-3457
▁macht	-3458
▁optimieren	-3459
▁fonctionne	-3460
▁Code	-3461
▁faire	-3462
▁rep	-3463
isch	-3464
otisch	-3465
▁debugger	-3466
▁chaotisch	-3467
sich	-3468
sichern	-3469
▁absichern	-3470
▁optimizar	-3471
rein	-3472
fachen	-3473
▁verein	-3474
▁construire	-3475
▁vereinfachen	-3476
gue	-3477
▁confi	-3478
▁buggue	-3479
▁deployen	-3480
▁ba	-3481
astre	-3482
▁desastre	-3483
▁net	-3484
▁cero	-3485
▁desde	-3486
▁dis	-3487
ificar	-3488
▁lanza	-3489
▁planificar	-3490
reglar	-3491
▁arreglar	-3492
▁debuggen	-3493
irft	-3494
▁wirft	-3495
▁creer	-3496
arieren	-3497
▁mettre	-3498
▁reparieren	-3499
▁refactorizar	-3500
▁com	-3501
▁ajouter	-3502
▁conce	-3503
▁crear	-3504
▁ich	-3505
riser	-3506
ziruj	-3507
▁securiser	-3508
▁optimiziruj	-3509
ert	-3510
voir	-3511
▁lance	-3512
▁concevoir	-3513
▁depurar	-3514
iert	-3515
▁nicht	-3516
ktioniert	-3517
▁funktioniert	-3518
toyer	-3519
▁sale	-3520
▁configu	-3521
▁nettoyer	-3522
▁eli	-3523
minar	-3524
▁corriger	-3525
▁eliminar	-3526
acer	-3527
▁hacer	-3528
▁agregar	-3529
uer	-3530
▁integriruj	-3531
iar	-3532
gest	-3533
▁sup	-3534
uerzt	-3535
▁trop	-3536
▁abgest	-3537
▁limpiar	-3538
▁abgestuerzt	-3539
av	-3540
ha	-3541
erp	-3542
rue	-3543
▁ueb	-3544
erprue	-3545
erpruefen	-3546
▁configurer	-3547
▁ueberpruefen	-3548
auen	-3549
obav	-3550
▁lent	-3551
▁bauen	-3552
▁dobav	-3553
▁actualizar	-3554
mis	-3555
miser	-3556
reini	-3557
▁supp	-3558
reinigen	-3559
▁deployer	-3560
▁optimiser	-3561
▁bereinigen	-3562
▁refactoriser	-3563
rimer	-3564
▁supprimer	-3565
▁simplifier	-3566
aet	-3567
▁rabot	-3568
▁plante	-3569
▁rabotaet	-3570
enar	-3571
▁lang	-3572
▁disenar	-3573
ifier	-3574
▁planifier	-3575
unç	-3576
haft	-3577
▁Doku	-3578
unçado	-3579
▁fehler	-3580
▁bagunçado	-3581
▁fehlerhaft	-3582
werf	-3583
werfen	-3584
▁entwerfen	-3585
leg	-3586
▁Gr	-3587
▁auf	-3588
▁von	-3589
▁Grund	-3590
ene	-3591
fern	-3592
fernen	-3593
▁entfernen	-3594
lat	-3595
rosti	-3596
teger	-3597
▁aseg	-3598
▁uprosti	-3599
▁asegurar	-3600
▁proteger	-3601
als	-3602
▁langsam	-3603
▁muy	-3604
legar	-3605
▁desplegar	-3606
▁tiene	-3607
asen	-3608
▁atu	-3609
▁uzh	-3610
icion	-3611
icionar	-3612
▁uzhasen	-3613
▁adicionar	-3614
▁atualizar	-3615
toriruj	-3616
▁refaktoriruj	-3617
daj	-3618
imi	-3619
ish	-3620
zdaj	-3621
▁mne	-3622
▁nao	-3623
▁sozdaj	-3624
).	-3625
sty	-3626
▁kar	-3627
chini	-3628
chisty	-3629
▁pochini	-3630
▁pochisty	-3631
imizar	-3632
▁otimizar	-3633
ejar	-3634
▁planejar	-3635
daet	-3636
▁kak	-3637
▁sdelat	-3638
▁vydaet	-3639
▁oshibki	-3640
lju	-3641
chit	-3642
▁glju	-3643
▁limpar	-3644
▁gljuchit	-3645
dj	-3646
kom	-3647
ladj	-3648
▁med	-3649
ravou	-3650
ishkom	-3651
lennyj	-3652
▁otladj	-3653
▁travou	-3654
▁slishkom	-3655
▁medlennyj	-3656
▁spl	-3657
▁muito	-3658
laj	-3659
▁sdelaj	-3660
ade	-3661
▁refatorar	-3662
ulja	-3663
▁nulja	-3664
raa	-3665
▁dasu	-3666
▁eraa	-3667
rikata	-3668
▁shanchu	-3669
▁projetar	-3670
▁yarikata	-3671
oke	-3672
alsja	-3673
▁slom	-3674
▁uberi	-3675
▁slomalsja	-3676
hoek	-3677
▁zade	-3678
▁gyehoek	-3679
▁zadeloj	-3680
kti	-3681
kei	-3682
oki	-3683
tek	-3684
▁ug	-3685
▁ele	-3686
masen	-3687
aniruj	-3688
▁ugoki	-3689
▁sekkei	-3690
▁splaniruj	-3691
▁ugokimasen	-3692
otte	-3693
▁hana	-3694
▁criar	-3695
▁eotte	-3696
▁hanaayo	-3697
▁eotteoke	-3698
▁debugar	-3699
roje	-3700
▁bal	-3701
ktiruj	-3702
▁sproje	-3703
▁remover	-3704
▁sprojektiruj	-3705
buu	-3706
owo	-3707
teo	-3708
jile	-3709
eobuu	-3710
owoyo	-3711
▁eojile	-3712
eobuuteo	-3713
▁cheobuuteo	-3714
▁eojileowoyo	-3715
antan	-3716
saeng	-3717
▁eleo	-3718
oshite	-3719
▁kantan	-3720
▁balsaeng	-3721
▁naoshite	-3722
deul	-3723
novi	-3724
deulgi	-3725
▁obnovi	-3726
▁mandeulgi	-3727
dol	-3728
seoyo	-3729
▁isseoyo	-3730
ss	-3731
▁jiji	-3732
▁kit	-3733
▁obe	-3734
ungdol	-3735
▁haess	-3736
▁jiagu	-3737
▁chungdol	-3738
▁obezopas	-3739
▁haesseumnida	-3740
kui	-3741
eomu	-3742
▁neu	-3743
▁beng	-3744
▁neomu	-3745
▁seiri	-3746
rimnida	-3747
▁bengkui	-3748
▁neurimnida	-3749
▁os	-3750
▁nastroy	-3751
▁corrigir	-3752
▁gui	-3753
▁chongfou	-3754
ibe	-3755
▁dibe	-3756
▁sakujo	-3757
▁dibeogeu	-3758
oi	-3759
ın	-3760
▁chu	-3761
▁osoi	-3762
▁chuangjian	-3763
enme	-3764
uroi	-3765
▁kara	-3766
▁kura	-3767
▁zenme	-3768
▁deburoi	-3769
cu	-3770
cou	-3771
▁cong	-3772
▁sass	-3773
▁congcou	-3774
▁sassoku	-3775
byu	-3776
anai	-3777
▁rebyu	-3778
▁kitanai	-3779
▁aru	-3780
▁anzen	-3781
▁xiufu	-3782
sshu	-3783
▁sak	-3784
▁bushu	-3785
▁shita	-3786
▁guihua	-3787
▁kurasshu	-3788
aggu	-3789
▁sheji	-3790
▁debaggu	-3791
▁youhua	-3792
tekika	-3793
▁geomto	-3794
▁saitekika	-3795
igi	-3796
kut	-3797
och	-3798
kutte	-3799
▁goch	-3800
▁gochigi	-3801
▁tsukutte	-3802
▁baocu	-3803
aji	-3804
▁ans	-3805
dongh	-3806
▁sakje	-3807
▁kyuuyo	-3808
donghaji	-3809
▁jianhua	-3810
▁anseumnida	-3811
▁jakdonghaji	-3812
gye	-3813
▁seolgye	-3814
▁tia	-3815
▁qingli	-3816
▁tiaoshi	-3817
▁jeongri	-3818
▁tianjia	-3819
▁hen	-3820
unh	-3821
▁wa	-3822
▁dansunh	-3823
aisu	-3824
▁luan	-3825
▁kuaisu	-3826
▁shezhi	-3827
▁boanhwa	-3828
▁gengxin	-3829
epho	-3830
▁baepho	-3831
oe	-3832
aile	-3833
jeog	-3834
▁choe	-3835
jeoghwa	-3836
▁huaile	-3837
▁choejeoghwa	-3838
aek	-3839
▁ripaek	-3840
▁ripaektoring	-3841
▁wit	-3842
▁with	-3843
lı	-3844
iş	-3845
▁ç	-3846
ış	-3847
ır	-3848
▁ile	-3849
ım	-3850
▁iç	-3851
▁.	-3852
▁bir	-3853
ık	-3854
ıs	-3855
▁if	-3856
hat	-3857
ları	-3858
),	-3859
▁/	-3860
▁The	-3861
▁için	-3862
▁this	-3863
▁veya	-3864
yp	-3865
env	-3866
▁geç	-3867
▁dosy	-3868
▁cl	-3869
▁one	-3870
ore	-3871
ını	-3872
▁var	-3873
▁class	-3874
ıl	-3875
ran	-3876
ası	-3877
▁ol	-3878
ranch	-3879
▁baş	-3880
▁what	-3881
▁branch	-3882
▁ş	-3883
ers	-3884
▁new	-3885
ısı	-3886
▁No	-3887
▁use	-3888
▁spec	-3889
ub	-3890
ype	-3891
▁aç	-3892
▁ed	-3893
▁çal	-3894
▁mı	-3895
reak	-3896
▁De	-3897
able	-3898
ıyor	-3899
mut	-3900
enti	-3901
ings	-3902
com	-3903
▁app	-3904
▁ke	-3905
▁break	-3906
erge	-3907
▁açık	-3908
▁least	-3909
arı	-3910
▁Uy	-3911
asın	-3912
denti	-3913
▁back	-3914
ds	-3915
ns	-3916
▁exp	-3917
▁son	-3918
▁comm	-3919
anı	-3920
edis	-3921
js	-3922
şt	-3923
mal	-3924
ılı	-3925
resh	-3926
▁paper	-3927
alar	-3928
sole	-3929
▁key	-3930
ments	-3931
onten	-3932
▁time	-3933
▁clear	-3934
▁çalış	-3935
py	-3936
▁iş	-3937
ilir	-3938
▁Her	-3939
▁Redis	-3940
▁dosyalar	-3941
..	-3942
per	-3943
ult	-3944
fter	-3945
▁head	-3946
rc	-3947
lık	-3948
mış	-3949
out	-3950
land	-3951
▁are	-3952
▁src	-3953
▁work	-3954
▁depend	-3955
am	-3956
ız	-3957
inin	-3958
▁Uygu	-3959
▁merge	-3960
avi	-3961
der	-3962
ret	-3963
▁If	-3964
arsay	-3965
avior	-3966
ingle	-3967
▁single	-3968
▁console	-3969
▁behavior	-3970
.)	-3971
lic	-3972
angi	-3973
▁gel	-3974
▁ned	-3975
▁specific	-3976
▁dosyaların	-3977
ked	-3978
lem	-3979
ırm	-3980
duce	-3981
ible	-3982
▁loc	-3983
▁per	-3984
▁pub	-3985
enten	-3986
▁diff	-3987
▁pass	-3988
▁that	-3989
▁explan	-3990
▁explanation	-3991
ET	-3992
cı	-3993
act	-3994
ısa	-3995
hout	-3996
line	-3997
orun	-3998
▁Log	-3999
▁yok	-4000
▁type	-4001
▁komut	-4002
example	-4003
▁without	-4004
▁Uygulama	-4005
çe	-4006
ery	-4007
son	-4008
▁az	-4009
main	-4010
ulti	-4011
velo	-4012
▁SQL	-4013
▁ama	-4014
▁ise	-4015
▁whi	-4016
agram	-4017
▁just	-4018
▁query	-4019
▁under	-4020
▁arasın	-4021
▁commit	-4022
▁refresh	-4023
ume	-4024
undle	-4025
▁full	-4026
▁only	-4027
▁read	-4028
▁neden	-4029
▁public	-4030
):	-4031
--	-4032
if	-4033
im	-4034
clu	-4035
ski	-4036
ved	-4037
ıcı	-4038
medi	-4039
phan	-4040
resi	-4041
▁Git	-4042
▁can	-4043
▁env	-4044
▁ret	-4045
▁who	-4046
fault	-4047
▁cover	-4048
▁veritabanı	-4049
rs	-4050
ry	-4051
ated	-4052
auth	-4053
lain	-4054
rası	-4055
trac	-4056
▁inv	-4057
lantı	-4058
ython	-4059
▁bloc	-4060
▁requ	-4061
arison	-4062
ations	-4063
▁multi	-4064
▁retur	-4065
▁formatı	-4066
▁migrate	-4067
▁comparison	-4068
SQL	-4069
ava	-4070
ded	-4071
lab	-4072
lay	-4073
miş	-4074
ost	-4075
▁ca	-4076
işen	-4077
layt	-4078
▁bot	-4079
▁ser	-4080
▁tar	-4081
▁does	-4082
▁sign	-4083
▁when	-4084
▁yeni	-4085
▁first	-4086
▁slayt	-4087
entence	-4088
▁logger	-4089
dentials	-4090
▁backend	-4091
▁compose	-4092
▁credentials	-4093
TT	-4094
eep	-4095
ime	-4096
mle	-4097
ove	-4098
▁ay	-4099
▁ok	-4100
işti	-4101
rect	-4102
tern	-4103
utes	-4104
▁bel	-4105
ified	-4106
▁Keep	-4107
▁each	-4108
orunlu	-4109
▁Check	-4110
▁istek	-4111
▁metho	-4112
▁which	-4113
▁returns	-4114
▁çalışıyor	-4115
xt	-4116
ect	-4117
git	-4118
laş	-4119
ous	-4120
sun	-4121
▁sı	-4122
cord	-4123
inde	-4124
ines	-4125
ocus	-4126
ında	-4127
ırla	-4128
▁kiş	-4129
▁why	-4130
▁fark	-4131
▁inde	-4132
▁sevi	-4133
▁smal	-4134
rulama	-4135
ılıyor	-4136
▁kurul	-4137
▁olsun	-4138
▁round	-4139
▁Kullan	-4140
▁docker	-4141
▁secret	-4142
EL	-4143
alı	-4144
mem	-4145
ory	-4146
rme	-4147
anım	-4148
arih	-4149
rage	-4150
test	-4151
▁One	-4152
▁but	-4153
▁cac	-4154
▁dur	-4155
▁sta	-4156
işken	-4157
lient	-4158
▁Comp	-4159
▁Type	-4160
▁edil	-4161
▁into	-4162
▁konu	-4163
▁must	-4164
▁pack	-4165
▁yapı	-4166
ontend	-4167
▁belir	-4168
▁focus	-4169
rontend	-4170
▁Deploy	-4171
▁Python	-4172
▁caching	-4173
▁default	-4174
▁methods	-4175
▁branches	-4176
▁response	-4177
IN	-4178
aj	-4179
th	-4180
ue	-4181
agn	-4182
ame	-4183
den	-4184
ush	-4185
▁JS	-4186
▁Mi	-4187
▁SS	-4188
atch	-4189
unda	-4190
view	-4191
▁bul	-4192
▁dak	-4193
▁ort	-4194
▁tam	-4195
masın	-4196
ution	-4197
ılmış	-4198
▁fiel	-4199
iliyor	-4200
stance	-4201
▁Hangi	-4202
▁inter	-4203
arsayım	-4204
dentify	-4205
▁dakika	-4206
▁rebase	-4207
▁command	-4208
▁section	-4209
▁zorunlu	-4210
▁dependen	-4211
▁Migration	-4212
ML	-4213
lç	-4214
ıt	-4215
TTP	-4216
arn	-4217
▁Ne	-4218
▁aş	-4219
iyor	-4220
otal	-4221
rnek	-4222
tter	-4223
▁all	-4224
▁any	-4225
clude	-4226
error	-4227
ready	-4228
▁Java	-4229
▁Serv	-4230
▁pref	-4231
▁push	-4232
▁text	-4233
ontent	-4234
▁appro	-4235
▁colum	-4236
▁korum	-4237
▁mesaj	-4238
▁somut	-4239
▁action	-4240
▁extrac	-4241
▁header	-4242
▁letter	-4243
▁already	-4244
▁dosyası	-4245
RM	-4246
yn	-4247
...	-4248
any	-4249
not	-4250
siz	-4251
yle	-4252
▁Ba	-4253
comm	-4254
erne	-4255
fore	-4256
ired	-4257
▁cur	-4258
▁has	-4259
ersiz	-4260
inked	-4261
meone	-4262
ption	-4263
▁down	-4264
▁kısa	-4265
▁tool	-4266
▁about	-4267
▁after	-4268
▁block	-4269
▁sonra	-4270
ernetes	-4271
▁before	-4272
▁output	-4273
▁explain	-4274
▁hazırla	-4275
framework	-4276
▁uygulama	-4277
ON	-4278
cy	-4279
pm	-4280
tt	-4281
gex	-4282
ill	-4283
iti	-4284
nce	-4285
ook	-4286
pro	-4287
riş	-4288
unt	-4289
ıkt	-4290
ımı	-4291
şti	-4292
▁At	-4293
ifre	-4294
itle	-4295
rici	-4296
ypes	-4297
▁Con	-4298
tings	-4299
velop	-4300
▁What	-4301
▁alan	-4302
▁list	-4303
▁prac	-4304
▁same	-4305
▁trac	-4306
▁word	-4307
Script	-4308
abilir	-4309
landır	-4310
▁içeri	-4311
▁local	-4312
▁regex	-4313
▁small	-4314
▁veril	-4315
▁assume	-4316
▁config	-4317
▁exists	-4318
▁listes	-4319
▁mevcut	-4320
iştirici	-4321
▁Current	-4322
▁geçiyor	-4323
▁sonrası	-4324
▁arasında	-4325
▁settings	-4326
▁specified	-4327
▁geliştirici	-4328
TL	-4329
acı	-4330
fes	-4331
fix	-4332
kli	-4333
una	-4334
▁EX	-4335
▁Ge	-4336
▁my	-4337
heir	-4338
ress	-4339
ılan	-4340
▁its	-4341
▁ori	-4342
▁red	-4343
▁sil	-4344
▁sub	-4345
ginal	-4346
iştir	-4347
steri	-4348
▁Data	-4349
▁Each	-4350
▁ever	-4351
▁exec	-4352
▁item	-4353
▁ques	-4354
▁size	-4355
▁vari	-4356
greSQL	-4357
ignore	-4358
memory	-4359
▁index	-4360
▁kanal	-4361
▁provi	-4362
▁tanım	-4363
▁tekil	-4364
▁their	-4365
▁title	-4366
▁users	-4367
labilir	-4368
▁açıkla	-4369
▁bundle	-4370
▁seviye	-4371
▁target	-4372
▁verify	-4373
fesyonel	-4374
▁content	-4375
▁extract	-4376
▁invalid	-4377
▁optimiz	-4378
▁pattern	-4379
ostgreSQL	-4380
▁approach	-4381
▁original	-4382
▁Deployment	-4383
▁production	-4384
ml	-4385
rk	-4386
AML	-4387
amp	-4388
her	-4389
ors	-4390
uld	-4391
yla	-4392
▁sn	-4393
fied	-4394
form	-4395
iron	-4396
rkçe	-4397
ross	-4398
skip	-4399
tent	-4400
uage	-4401
ınca	-4402
▁Exp	-4403
▁yay	-4404
asure	-4405
eries	-4406
unlar	-4407
unucu	-4408
venli	-4409
vious	-4410
▁YAML	-4411
▁copy	-4412
▁oldu	-4413
▁port	-4414
arihçe	-4415
ctions	-4416
larını	-4417
verage	-4418
ştirme	-4419
▁basic	-4420
▁cause	-4421
▁nasıl	-4422
▁needs	-4423
▁stack	-4424
▁works	-4425
landırm	-4426
▁across	-4427
▁belirt	-4428
▁mesajı	-4429
▁prepar	-4430
▁recomm	-4431
▁reduce	-4432
▁sayısı	-4433
▁columns	-4434
▁discord	-4435
▁profili	-4436
gitignore	-4437
TA	-4438
OST	-4439
elp	-4440
ext	-4441
mes	-4442
oss	-4443
ses	-4444
ube	-4445
zet	-4446
ına	-4447
ırı	-4448
▁AI	-4449
▁Dj	-4450
▁id	-4451
▁im	-4452
ango	-4453
laşt	-4454
neri	-4455
over	-4456
play	-4457
tice	-4458
vert	-4459
ıktı	-4460
▁New	-4461
▁TTL	-4462
▁Tek	-4463
▁Use	-4464
▁aya	-4465
▁min	-4466
anged	-4467
earch	-4468
elime	-4469
▁JSON	-4470
▁Node	-4471
▁call	-4472
▁dete	-4473
▁help	-4474
▁like	-4475
▁next	-4476
▁parç	-4477
▁path	-4478
▁than	-4479
agraph	-4480
dience	-4481
ession	-4482
isting	-4483
rselle	-4484
▁eksik	-4485
▁ortam	-4486
▁varsa	-4487
inkedIn	-4488
▁Django	-4489
▁başlat	-4490
▁farklı	-4491
▁orphan	-4492
▁prefix	-4493
▁proper	-4494
▁saklan	-4495
▁verisi	-4496
irements	-4497
sentence	-4498
▁Changed	-4499
▁Compose	-4500
▁Service	-4501
▁classes	-4502
▁kurulum	-4503
▁minutes	-4504
ubernetes	-4505
▁Existing	-4506
▁LinkedIn	-4507
▁commands	-4508
▁limiting	-4509
▁sections	-4510
▁interview	-4511
▁questions	-4512
▁TypeScript	-4513
▁actionable	-4514
▁dependency	-4515
SC	-4516
TE	-4517
bu	-4518
nc	-4519
yı	-4520
all	-4521
bug	-4522
ile	-4523
mez	-4524
ody	-4525
pas	-4526
tep	-4527
zik	-4528
çek	-4529
POST	-4530
eric	-4531
info	-4532
isim	-4533
macı	-4534
ored	-4535
rsel	-4536
void	-4537
ware	-4538
yona	-4539
ılım	-4540
▁fac	-4541
▁git	-4542
▁sat	-4543
▁uyg	-4544
▁val	-4545
▁yer	-4546
▁çok	-4547
asyon	-4548
debug	-4549
ength	-4550
lılık	-4551
rekli	-4552
▁HTTP	-4553
▁Rate	-4554
▁eden	-4555
▁isim	-4556
▁name	-4557
▁okun	-4558
▁show	-4559
▁soft	-4560
▁step	-4561
▁team	-4562
▁tesp	-4563
roduce	-4564
▁Diagn	-4565
▁durum	-4566
▁field	-4567
▁hangi	-4568
▁kabul	-4569
▁riski	-4570
▁sesli	-4571
▁types	-4572
▁uyarı	-4573
▁words	-4574
duction	-4575
stagram	-4576
veloper	-4577
▁yazısı	-4578
▁çalışt	-4579
▁Convert	-4580
▁açıklam	-4581
▁generic	-4582
▁queries	-4583
▁request	-4584
▁someone	-4585
▁Identify	-4586
▁covering	-4587
▁headings	-4588
▁yapılandır	-4589
rselleştirme	-4590
DE	-4591
De	-4592
LA	-4593
RE	-4594
ah	-4595
gn	-4596
ty	-4597
we	-4598
ıç	-4599
PLA	-4600
gın	-4601
hol	-4602
lev	-4603
ptı	-4604
ree	-4605
ria	-4606
▁ID	-4607
▁IP	-4608
▁fo	-4609
▁il	-4610
----	-4611
acak	-4612
ahıs	-4613
ases	-4614
code	-4615
comp	-4616
eign	-4617
ence	-4618
here	-4619
host	-4620
isel	-4621
lete	-4622
malı	-4623
side	-4624
tlar	-4625
undu	-4626
vate	-4627
▁All	-4628
▁ORM	-4629
▁Res	-4630
▁Ret	-4631
▁SSL	-4632
▁bet	-4633
▁mid	-4634
▁sen	-4635
▁sız	-4636
▁vol	-4637
▁çık	-4638
PLAIN	-4639
after	-4640
inden	-4641
ition	-4642
merge	-4643
orked	-4644
queue	-4645
rable	-4646
redis	-4647
▁Kısı	-4648
▁Tone	-4649
▁aria	-4650
▁more	-4651
▁most	-4652
▁note	-4653
▁pull	-4654
domain	-4655
holder	-4656
langıç	-4657
nerisi	-4658
tabanı	-4659
ternal	-4660
tunlar	-4661
ılınca	-4662
▁Login	-4663
▁React	-4664
▁anlaş	-4665
▁given	-4666
▁items	-4667
▁işlem	-4668
▁stale	-4669
▁stand	-4670
▁total	-4671
▁trace	-4672
▁yaptı	-4673
▁şahıs	-4674
viously	-4675
▁client	-4676
▁direct	-4677
▁geçmiş	-4678
▁likely	-4679
▁should	-4680
▁tespit	-4681
▁volume	-4682
▁yaygın	-4683
ironment	-4684
zerinden	-4685
▁Backend	-4686
▁EXPLAIN	-4687
▁authors	-4688
▁depends	-4689
▁kişinin	-4690
▁kişisel	-4691
▁listesi	-4692
▁logları	-4693
▁network	-4694
▁package	-4695
▁private	-4696
▁underst	-4697
▁Kısıtlar	-4698
▁geçersiz	-4699
▁instance	-4700
▁korumalı	-4701
▁kullanım	-4702
▁language	-4703
▁location	-4704
▁provided	-4705
▁sentence	-4706
▁execution	-4707
▁localhost	-4708
▁obviously	-4709
▁servisler	-4710
▁Kubernetes	-4711
▁Veritabanı	-4712
▁behavioral	-4713
▁anlaşılıyor	-4714
▁environment	-4715
▁placeholder	-4716
▁profesyonel	-4717
//	-4718
EV	-4719
IP	-4720
OG	-4721
Re	-4722
nl	-4723
vn	-4724
zg	-4725
▁>	-4726
://	-4727
LEV	-4728
cih	-4729
ema	-4730
era	-4731
gon	-4732
ide	-4733
ive	-4734
lec	-4735
leş	-4736
nem	-4737
ple	-4738
tup	-4739
yse	-4740
zed	-4741
▁Au	-4742
▁Go	-4743
▁op	-4744
▁uz	-4745
asak	-4746
atik	-4747
book	-4748
nown	-4749
osis	-4750
rcih	-4751
tegy	-4752
warn	-4753
word	-4754
▁htt	-4755
▁kub	-4756
▁mvn	-4757
▁nat	-4758
▁npm	-4759
▁oku	-4760
▁own	-4761
▁sor	-4762
LEVEL	-4763
ables	-4764
akter	-4765
ently	-4766
lerde	-4767
liyor	-4768
nemli	-4769
place	-4770
pring	-4771
risma	-4772
tures	-4773
▁Fast	-4774
▁Requ	-4775
▁Yeni	-4776
▁body	-4777
▁dili	-4778
▁hash	-4779
▁hook	-4780
▁plat	-4781
▁pool	-4782
▁repo	-4783
▁stra	-4784
▁then	-4785
▁upda	-4786
▁şema	-4787
isible	-4788
lected	-4789
venlik	-4790
yagram	-4791
▁Cover	-4792
▁Nginx	-4793
▁Uyarı	-4794
▁based	-4795
▁count	-4796
▁eklen	-4797
▁every	-4798
▁exact	-4799
▁guide	-4800
▁initi	-4801
▁kitle	-4802
▁match	-4803
▁uygun	-4804
▁yasak	-4805
▁şifre	-4806
ettings	-4807
measure	-4808
phanesi	-4809
ımlılık	-4810
▁Client	-4811
▁differ	-4812
▁handle	-4813
▁komutu	-4814
▁length	-4815
▁loglar	-4816
▁ortamı	-4817
▁result	-4818
▁senary	-4819
▁tercih	-4820
Varsayım	-4821
frontend	-4822
landırma	-4823
steriyor	-4824
▁Express	-4825
▁Include	-4826
▁context	-4827
▁indexes	-4828
▁tanımlı	-4829
▁yazılım	-4830
▁Audience	-4831
▁Diagnose	-4832
▁alanları	-4833
▁açıklama	-4834
▁complete	-4835
▁external	-4836
▁fixtures	-4837
▁karakter	-4838
▁kullanma	-4839
▁multiple	-4840
▁notebook	-4841
▁packages	-4842
▁platform	-4843
▁selected	-4844
▁strategy	-4845
▁varsayım	-4846
▁developer	-4847
▁komutları	-4848
▁paragraph	-4849
▁variables	-4850
▁preference	-4851
▁justification	-4852
rselleştirmeler	-4853
/.	-4854
EO	-4855
LL	-4856
RL	-4857
RU	-4858
şı	-4859
ULL	-4860
aln	-4861
bed	-4862
ble	-4863
cek	-4864
cry	-4865
det	-4866
dge	-4867
ify	-4868
osu	-4869
ouT	-4870
par	-4871
tax	-4872
tom	-4873
ute	-4874
val	-4875
vaş	-4876
vel	-4877
vol	-4878
çlı	-4879
▁--	-4880
▁DB	-4881
▁IN	-4882
▁bu	-4883
case	-4884
ding	-4885
eriş	-4886
gisi	-4887
ikir	-4888
inci	-4889
ions	-4890
kisi	-4891
less	-4892
pect	-4893
rder	-4894
reca	-4895
rets	-4896
tubu	-4897
ults	-4898
veya	-4899
ySQL	-4900
ştur	-4901
▁###	-4902
▁Mek	-4903
▁Pat	-4904
▁SEO	-4905
▁day	-4906
▁edi	-4907
▁fas	-4908
▁gro	-4909
▁hap	-4910
▁int	-4911
▁mat	-4912
▁num	-4913
▁syn	-4914
▁win	-4915
▁çek	-4916
▁şem	-4917
alnız	-4918
asını	-4919
bered	-4920
chite	-4921
crypt	-4922
erler	-4923
inter	-4924
ision	-4925
label	-4926
larak	-4927
login	-4928
mıyor	-4929
odash	-4930
ormal	-4931
paste	-4932
sists	-4933
zelli	-4934
zenle	-4935
ırlık	-4936
şmacı	-4937
▁NULL	-4938
▁YouT	-4939
▁curl	-4940
▁eriş	-4941
▁find	-4942
▁info	-4943
▁kalk	-4944
▁loss	-4945
▁mini	-4946
▁olan	-4947
▁over	-4948
▁rows	-4949
▁runs	-4950
▁sıra	-4951
▁tail	-4952
arning	-4953
gether	-4954
logger	-4955
volved	-4956
şılaşt	-4957
▁avoid	-4958
▁curve	-4959
▁embed	-4960
▁fikir	-4961
▁force	-4962
▁giriş	-4963
▁kapak	-4964
▁karış	-4965
▁kayıt	-4966
▁lines	-4967
▁never	-4968
▁paths	-4969
▁snake	-4970
▁split	-4971
▁testi	-4972
▁yavaş	-4973
▁çalma	-4974
develop	-4975
miyorsa	-4976
recated	-4977
▁Tekrar	-4978
▁amaçlı	-4979
▁botuna	-4980
▁comput	-4981
▁faster	-4982
▁olarak	-4983
▁option	-4984
▁server	-4985
▁sunucu	-4986
▁syntax	-4987
▁tables	-4988
▁tokens	-4989
▁unless	-4990
▁varsay	-4991
▁yalnız	-4992
▁yapısı	-4993
endation	-4994
instance	-4995
rollback	-4996
sibility	-4997
▁Provide	-4998
▁YouTube	-4999
▁archite	-5000
▁created	-5001
▁mektubu	-5002
▁olmasın	-5003
▁oluştur	-5004
▁practic	-5005
▁tarihçe	-5006
formation	-5007
şılaştırm	-5008
▁coverage	-5009
▁dosyasın	-5010
▁involved	-5011
▁isimleri	-5012
▁learning	-5013
▁numbered	-5014
▁password	-5015
▁persists	-5016
▁research	-5017
▁signific	-5018
▁tailored	-5019
▁together	-5020
▁yenileme	-5021
PostgreSQL	-5022
production	-5023
▁endpoints	-5024
▁fikirleri	-5025
▁introduce	-5026
development	-5027
▁arasındaki	-5028
▁okunabilir	-5029
▁information	-5030
▁architecture	-5031
▁karşılaştırm	-5032
DB	-5033
ax	-5034
co	-5035
uç	-5036
ıp	-5037
.).	-5038
For	-5039
bot	-5040
cod	-5041
dur	-5042
els	-5043
eme	-5044
eve	-5045
ils	-5046
ily	-5047
jen	-5048
kir	-5049
kma	-5050
kış	-5051
lib	-5052
man	-5053
may	-5054
rib	-5055
sin	-5056
tag	-5057
zis	-5058
ıra	-5059
ıya	-5060
anlı	-5061
ared	-5062
fade	-5063
gere	-5064
ient	-5065
imit	-5066
iriş	-5067
işik	-5068
ksiz	-5069
ming	-5070
pass	-5071
pend	-5072
rade	-5073
rute	-5074
soru	-5075
stop	-5076
vers	-5077
▁ASC	-5078
▁Bot	-5079
▁CTA	-5080
▁Eng	-5081
▁Run	-5082
▁ark	-5083
▁boş	-5084
▁fab	-5085
▁hat	-5086
▁max	-5087
▁sık	-5088
After	-5089
aniye	-5090
arize	-5091
arklı	-5092
eklen	-5093
hieve	-5094
jenin	-5095
level	-5096
mayan	-5097
sized	-5098
tails	-5099
ursor	-5100
valid	-5101
ısını	-5102
▁Auth	-5103
▁Hata	-5104
▁akış	-5105
▁alın	-5106
▁ayar	-5107
▁bıra	-5108
▁daha	-5109
▁etme	-5110
▁hard	-5111
▁kayb	-5112
▁modi	-5113
▁otom	-5114
▁rest	-5115
▁rout	-5116
▁seti	-5117
▁sour	-5118
▁summ	-5119
▁thin	-5120
▁tips	-5121
▁trig	-5122
▁şark	-5123
Deploy	-5124
amples	-5125
coding	-5126
iscord	-5127
lanmış	-5128
lemede	-5129
onents	-5130
▁Retry	-5131
▁Total	-5132
▁anket	-5133
▁color	-5134
▁deleg	-5135
▁diagn	-5136
▁flows	-5137
▁ifade	-5138
▁lists	-5139
▁named	-5140
▁pence	-5141
▁pozis	-5142
▁ready	-5143
▁sonuç	-5144
▁temel	-5145
▁tutar	-5146
▁where	-5147
alidate	-5148
elasyon	-5149
iştirdi	-5150
kiyorsa	-5151
lantısı	-5152
ricated	-5153
▁başarı	-5154
▁delete	-5155
▁determ	-5156
▁fields	-5157
▁inline	-5158
▁kanala	-5159
▁kelime	-5160
▁logout	-5161
▁owners	-5162
▁paylaş	-5163
▁pytest	-5164
▁routes	-5165
▁saniye	-5166
▁shared	-5167
▁uyarla	-5168
▁worked	-5169
▁yerine	-5170
işkenler	-5171
▁Pattern	-5172
▁achieve	-5173
▁bırakma	-5174
▁caption	-5175
▁details	-5176
▁edilmiş	-5177
▁expired	-5178
▁focused	-5179
▁gerekir	-5180
▁geçmeli	-5181
▁minimal	-5182
▁preserv	-5183
▁projede	-5184
▁tabanlı	-5185
▁visible	-5186
▁şarkıya	-5187
▁Projenin	-5188
▁diyagram	-5189
▁examples	-5190
▁gereksiz	-5191
▁hardcode	-5192
▁identify	-5193
▁koruması	-5194
▁otomatik	-5195
▁practice	-5196
components	-5197
imitations	-5198
▁Instagram	-5199
▁başlangıç	-5200
▁diagnosis	-5201
▁functions	-5202
▁konuşmacı	-5203
▁pozisyona	-5204
▁summarize	-5205
gerekiyorsa	-5206
▁fabricated	-5207
▁migrations	-5208
▁preparation	-5209
▁achievements	-5210
▁invalidation	-5211
/,	-5212
II	-5213
IT	-5214
LI	-5215
OR	-5216
PU	-5217
dk	-5218
dı	-5219
px	-5220
rl	-5221
▁#	-5222
Lab	-5223
Map	-5224
OIN	-5225
ORM	-5226
ape	-5227
bic	-5228
bun	-5229
con	-5230
cop	-5231
dle	-5232
duc	-5233
ebp	-5234
eds	-5235
exp	-5236
fmp	-5237
gro	-5238
how	-5239
işk	-5240
maz	-5241
mek	-5242
ner	-5243
npm	-5244
oDB	-5245
sec	-5246
set	-5247
url	-5248
vra	-5249
çil	-5250
ınt	-5251
▁ER	-5252
▁ON	-5253
▁vb	-5254
▁wh	-5255
HTTP	-5256
Node	-5257
aces	-5258
akes	-5259
ayıt	-5260
cies	-5261
dule	-5262
eout	-5263
ffic	-5264
full	-5265
hata	-5266
head	-5267
hips	-5268
ilde	-5269
mits	-5270
mpty	-5271
olve	-5272
onds	-5273
orts	-5274
requ	-5275
risk	-5276
step	-5277
ters	-5278
unts	-5279
user	-5280
yesi	-5281
▁Bef	-5282
▁Dil	-5283
▁Fly	-5284
▁Geç	-5285
▁LOG	-5286
▁SET	-5287
▁Sec	-5288
▁Tar	-5289
▁Vue	-5290
▁ask	-5291
▁def	-5292
▁dol	-5293
▁etc	-5294
▁gre	-5295
▁kno	-5296
▁mob	-5297
▁ope	-5298
▁rot	-5299
▁row	-5300
▁sın	-5301
▁unk	-5302
▁was	-5303
▁yak	-5304
Dskip	-5305
HTTPS	-5306
ached	-5307
argon	-5308
ceeds	-5309
crete	-5310
ended	-5311
fmpeg	-5312
ister	-5313
lamlı	-5314
orepo	-5315
pages	-5316
short	-5317
sider	-5318
uları	-5319
voice	-5320
çildi	-5321
▁Alem	-5322
▁Cove	-5323
▁Full	-5324
▁Hass	-5325
▁JOIN	-5326
▁Kısa	-5327
▁Mong	-5328
▁Perf	-5329
▁Role	-5330
▁auto	-5331
▁grep	-5332
▁have	-5333
▁many	-5334
▁oper	-5335
▁orta	-5336
▁pure	-5337
▁real	-5338
▁root	-5339
▁term	-5340
▁warn	-5341
▁will	-5342
▁your	-5343
Prisma	-5344
cached	-5345
didate	-5346
dified	-5347
ebpack	-5348
eniyle	-5349
erated	-5350
estamp	-5351
gerçek	-5352
ground	-5353
ilmedi	-5354
levant	-5355
meters	-5356
module	-5357
spaces	-5358
ılacak	-5359
▁ASCII	-5360
▁MySQL	-5361
▁above	-5362
▁being	-5363
▁bilen	-5364
▁bilgi	-5365
▁bilin	-5366
▁crash	-5367
▁diffs	-5368
▁empty	-5369
▁found	-5370
▁gerek	-5371
▁https	-5372
▁image	-5373
▁kalır	-5374
▁kavra	-5375
▁kural	-5376
▁large	-5377
▁model	-5378
▁names	-5379
▁sorun	-5380
▁still	-5381
▁store	-5382
▁theme	-5383
▁there	-5384
▁yapma	-5385
console	-5386
jection	-5387
mediyse	-5388
mlarını	-5389
ormance	-5390
osystem	-5391
pendent	-5392
▁Before	-5393
▁Bundle	-5394
▁Flyway	-5395
▁GitLab	-5396
▁SQLite	-5397
▁Spring	-5398
▁Target	-5399
▁başlık	-5400
▁başına	-5401
▁cached	-5402
▁counts	-5403
▁ffmpeg	-5404
▁hatası	-5405
▁instru	-5406
▁içinde	-5407
▁kalıcı	-5408
▁kurulu	-5409
▁linter	-5410
▁loglan	-5411
▁reader	-5412
▁senten	-5413
▁states	-5414
▁sızınt	-5415
▁values	-5416
Settings	-5417
abiliyor	-5418
register	-5419
velopers	-5420
▁Alembic	-5421
▁FastAPI	-5422
▁Invalid	-5423
▁MongoDB	-5424
▁Refresh	-5425
▁Replace	-5426
▁TypeORM	-5427
▁anlamlı	-5428
▁belirli	-5429
▁bilgisi	-5430
▁company	-5431
▁compare	-5432
▁diagram	-5433
▁foreign	-5434
▁improve	-5435
▁komutla	-5436
▁paragra	-5437
▁prepare	-5438
▁prevent	-5439
▁resolve	-5440
▁seçildi	-5441
▁showing	-5442
▁slaytın	-5443
▁sonraki	-5444
▁unknown	-5445
▁verildi	-5446
alization	-5447
generated	-5448
işkeniyle	-5449
işkenleri	-5450
▁Coverage	-5451
▁Geçersiz	-5452
▁Rollback	-5453
▁comments	-5454
▁concrete	-5455
▁ediliyor	-5456
▁engineer	-5457
▁findings	-5458
▁frontend	-5459
▁geçmişte	-5460
▁işlemler	-5461
▁keyboard	-5462
▁monorepo	-5463
▁olabilir	-5464
▁operable	-5465
▁relevant	-5466
▁saklanır	-5467
▁seviyesi	-5468
▁software	-5469
▁standard	-5470
▁çalıştır	-5471
DskipTests	-5472
ationships	-5473
▁Kullanıcı	-5474
▁candidate	-5475
▁deploying	-5476
▁diyagramı	-5477
▁optimized	-5478
▁senaryosu	-5479
▁sentences	-5480
description	-5481
▁Kullanılan	-5482
▁PostgreSQL	-5483
▁accessible	-5484
▁açıklaması	-5485
▁background	-5486
▁containers	-5487
▁developers	-5488
▁explaining	-5489
▁parameters	-5490
▁statements	-5491
▁workspaces	-5492
▁Performance	-5493
▁independent	-5494
▁belirtilmedi	-5495
▁bilinmiyorsa	-5496
▁dependencies	-5497
▁instructions	-5498
▁kavramlarını	-5499
▁optimization	-5500
▁requirements	-5501
▁verilmediyse	-5502
▁relationships	-5503
▁karşılaştırması	-5504
AL	-5505
Do	-5506
YZ	-5507
af	-5508
cl	-5509
ia	-5510
wo	-5511
çi	-5512
şe	-5513
DoS	-5514
ETE	-5515
NAL	-5516
URL	-5517
YZE	-5518
ads	-5519
afı	-5520
ayı	-5521
cla	-5522
col	-5523
dri	-5524
fer	-5525
ges	-5526
hic	-5527
hil	-5528
idu	-5529
lel	-5530
ley	-5531
lly	-5532
lul	-5533
maş	-5534
mpo	-5535
plt	-5536
rel	-5537
sız	-5538
tam	-5539
tim	-5540
tod	-5541
ups	-5542
vur	-5543
wit	-5544
▁CA	-5545
▁DX	-5546
▁Ok	-5547
▁lo	-5548
▁ph	-5549
▁we	-5550
▁wr	-5551
Real	-5552
adde	-5553
anda	-5554
anın	-5555
arts	-5556
blem	-5557
cata	-5558
clus	-5559
coun	-5560
ectl	-5561
eded	-5562
flar	-5563
flow	-5564
gili	-5565
hoot	-5566
ibir	-5567
ices	-5568
iler	-5569
inct	-5570
json	-5571
king	-5572
kısa	-5573
lazy	-5574
lish	-5575
list	-5576
lişe	-5577
name	-5578
phic	-5579
roub	-5580
show	-5581
ster	-5582
tive	-5583
tual	-5584
ules	-5585
vidu	-5586
week	-5587
ween	-5588
yaml	-5589
▁DEL	-5590
▁Des	-5591
▁Kod	-5592
▁Rec	-5593
▁Ren	-5594
▁SSR	-5595
▁STA	-5596
▁Yuk	-5597
▁adı	-5598
▁anı	-5599
▁ayr	-5600
▁blo	-5601
▁dev	-5602
▁dil	-5603
▁fin	-5604
▁fit	-5605
▁got	-5606
▁hon	-5607
▁ide	-5608
▁ilk	-5609
▁iyi	-5610
▁keş	-5611
▁mar	-5612
▁rec	-5613
▁two	-5614
▁via	-5615
OAuth	-5616
allel	-5617
arken	-5618
atist	-5619
atter	-5620
chest	-5621
claim	-5622
color	-5623
cribe	-5624
eneyi	-5625
erson	-5626
estru	-5627
ferde	-5628
ffect	-5629
grade	-5630
iciyi	-5631
ishes	-5632
ities	-5633
izley	-5634
kileş	-5635
lecek	-5636
maşık	-5637
order	-5638
ousel	-5639
rases	-5640
rleri	-5641
tered	-5642
todos	-5643
urity	-5644
▁ANAL	-5645
▁Akış	-5646
▁Cent	-5647
▁Cite	-5648
▁Ends	-5649
▁Fits	-5650
▁Ment	-5651
▁Move	-5652
▁Pods	-5653
▁Risk	-5654
▁Time	-5655
▁Uses	-5656
▁Word	-5657
▁demo	-5658
▁dist	-5659
▁esti	-5660
▁fake	-5661
▁four	-5662
▁gibi	-5663
▁long	-5664
▁medi	-5665
▁move	-5666
▁numb	-5667
▁pick	-5668
▁prep	-5669
▁redi	-5670
▁ring	-5671
▁scre	-5672
▁they	-5673
bcrypt	-5674
bundle	-5675
cludes	-5676
ctural	-5677
driven	-5678
eating	-5679
ibirli	-5680
ifying	-5681
ikleri	-5682
ilable	-5683
ionate	-5684
lerini	-5685
mleyle	-5686
plicit	-5687
scheme	-5688
tified	-5689
urally	-5690
vidual	-5691
ything	-5692
▁Giriş	-5693
▁ReDoS	-5694
▁Reads	-5695
▁Tanım	-5696
▁alloc	-5697
▁aşırı	-5698
▁bulgu	-5699
▁cases	-5700
▁dahil	-5701
▁daily	-5702
▁fixes	-5703
▁genel	-5704
▁hooks	-5705
▁korun	-5706
▁madde	-5707
▁plain	-5708
▁reads	-5709
▁redis	-5710
▁rules	-5711
▁saved	-5712
▁short	-5713
▁troub	-5714
▁value	-5715
▁while	-5716
▁wrong	-5717
▁yoksa	-5718
allback	-5719
andable	-5720
arıdaki	-5721
clusion	-5722
dleware	-5723
gestion	-5724
hooting	-5725
mpotent	-5726
ractice	-5727
results	-5728
▁Covers	-5729
▁DELETE	-5730
▁Kelime	-5731
▁Mektup	-5732
▁Okundu	-5733
▁Rename	-5734
▁Sunucu	-5735
▁actual	-5736
▁basics	-5737
▁başvur	-5738
▁better	-5739
▁blocks	-5740
▁coding	-5741
▁common	-5742
▁covers	-5743
▁destru	-5744
▁domain	-5745
▁ediyor	-5746
▁encoun	-5747
▁etkisi	-5748
▁filler	-5749
▁gerçek	-5750
▁gotcha	-5751
▁groups	-5752
▁honest	-5753
▁ilgili	-5754
▁market	-5755
▁needed	-5756
▁normal	-5757
▁okundu	-5758
▁pasted	-5759
▁person	-5760
▁rename	-5761
▁source	-5762
▁strong	-5763
▁sırası	-5764
▁tarafı	-5765
▁traces	-5766
catastro	-5767
claimers	-5768
describe	-5769
ribution	-5770
rnekleri	-5771
tracking	-5772
▁ANALYZE	-5773
▁English	-5774
▁Gelecek	-5775
▁Respect	-5776
▁Riskler	-5777
▁Someone	-5778
▁Tarihçe	-5779
▁aşmıyor	-5780
▁between	-5781
▁birinci	-5782
▁clearly	-5783
▁display	-5784
▁etkileş	-5785
▁initial	-5786
▁kibirli	-5787
▁kubectl	-5788
▁numbers	-5789
▁phrases	-5790
▁prefers	-5791
▁routing	-5792
▁secrets	-5793
▁seferde	-5794
▁session	-5795
▁setinin	-5796
▁smaller	-5797
▁updated	-5798
ibilities	-5799
pasteable	-5800
▁Includes	-5801
▁Mentions	-5802
▁Pipeline	-5803
▁Services	-5804
▁başlatma	-5805
▁distinct	-5806
▁explicit	-5807
▁finishes	-5808
▁istatist	-5809
▁karmaşık	-5810
▁parallel	-5811
▁redirect	-5812
▁required	-5813
▁saniyede	-5814
▁satırlık	-5815
▁tamamını	-5816
▁troubles	-5817
▁variable	-5818
▁yazılmış	-5819
Deployment	-5820
izleyiciyi	-5821
passionate	-5822
steriliyor	-5823
ırılabilir	-5824
▁naturally	-5825
▁parçalama	-5826
▁repeating	-5827
▁veritaban	-5828
▁Yukarıdaki	-5829
▁allocation	-5830
▁açıklamalı	-5831
▁components	-5832
▁conclusion	-5833
▁everything	-5834
▁idempotent	-5835
▁individual	-5836
▁korelasyon	-5837
▁listesinin	-5838
▁operations	-5839
▁quantified	-5840
▁specifying	-5841
▁structural	-5842
▁suggestion	-5843
catastrophic	-5844
▁Deployments	-5845
▁Limitations	-5846
▁computation	-5847
▁disclaimers	-5848
▁encountered	-5849
▁kullanılmış	-5850
▁limitlerini	-5851
▁paylaşılmış	-5852
▁recommended	-5853
▁refactoring	-5854
▁understands	-5855
▁backtracking	-5856
▁contribution	-5857
▁istatistikleri	-5858
▁recommendation	-5859
▁understandable	-5860
▁troubleshooting	-5861
DA	-5862
EC	-5863
EX	-5864
Fi	-5865
MB	-5866
OT	-5867
PK	-5868
RA	-5869
TS	-5870
VI	-5871
kk	-5872
nı	-5873
wt	-5874
ADE	-5875
BLI	-5876
EDA	-5877
EXT	-5878
GET	-5879
Hel	-5880
LRU	-5881
LTE	-5882
RUD	-5883
SET	-5884
TML	-5885
TTL	-5886
Yap	-5887
abı	-5888
ail	-5889
bus	-5890
cus	-5891
dep	-5892
dlp	-5893
dır	-5894
eka	-5895
eki	-5896
hod	-5897
ifs	-5898
ikk	-5899
int	-5900
key	-5901
kip	-5902
luk	-5903
met	-5904
nak	-5905
ock	-5906
okt	-5907
omm	-5908
oot	-5909
ops	-5910
pma	-5911
qui	-5912
ref	-5913
tty	-5914
urn	-5915
urt	-5916
wid	-5917
yjs	-5918
ymp	-5919
ync	-5920
yut	-5921
zlı	-5922
ıks	-5923
ızı	-5924
▁Da	-5925
▁He	-5926
▁Is	-5927
▁JU	-5928
▁St	-5929
▁bl	-5930
▁sm	-5931
▁yt	-5932
▁ço	-5933
/...	-5934
BLIC	-5935
ETag	-5936
Jest	-5937
LTER	-5938
VITE	-5939
ailw	-5940
aman	-5941
ants	-5942
atus	-5943
cess	-5944
cise	-5945
dece	-5946
ebug	-5947
etch	-5948
etme	-5949
exis	-5950
face	-5951
fika	-5952
flic	-5953
free	-5954
gers	-5955
ileb	-5956
ilgi	-5957
imed	-5958
kırm	-5959
lers	-5960
lest	-5961
levs	-5962
llow	-5963
mens	-5964
mesi	-5965
move	-5966
nder	-5967
ness	-5968
ning	-5969
nlen	-5970
oksa	-5971
opsi	-5972
pens	-5973
prin	-5974
rafi	-5975
rict	-5976
rula	-5977
sert	-5978
stic	-5979
tele	-5980
teyi	-5981
ting	-5982
tlen	-5983
uses	-5984
very	-5985
ılır	-5986
ınık	-5987
ının	-5988
ırıl	-5989
▁Baş	-5990
▁Bir	-5991
▁NOT	-5992
▁Non	-5993
▁Son	-5994
▁Tim	-5995
▁Too	-5996
▁Var	-5997
▁api	-5998
▁big	-5999
▁cli	-6000
▁duy	-6001
▁eti	-6002
▁god	-6003
▁hes	-6004
▁hız	-6005
▁imp	-6006
▁jwt	-6007
▁kim	-6008
▁kıs	-6009
▁old	-6010
▁tim	-6011
▁vue	-6012
▁şek	-6013
Event	-6014
Order	-6015
SCADE	-6016
Valid	-6017
Yapay	-6018
aches	-6019
adaki	-6020
aking	-6021
aları	-6022
angis	-6023
antly	-6024
artup	-6025
brute	-6026
busin	-6027
confi	-6028
ctive	-6029
dayjs	-6030
ected	-6031
ekici	-6032
ellik	-6033
flows	-6034
hings	-6035
hmine	-6036
ifsel	-6037
ikkat	-6038
istek	-6039
landı	-6040
lanıp	-6041
lemek	-6042
lerle	-6043
likte	-6044
lived	-6045
mamış	-6046
mates	-6047
mlesi	-6048
nally	-6049
orage	-6050
ponse	-6051
print	-6052
puyor	-6053
pyter	-6054
riali	-6055
roduc	-6056
tiren	-6057
users	-6058
utils	-6059
width	-6060
yered	-6061
ıcıya	-6062
ıksın	-6063
ınıfa	-6064
şlevs	-6065
▁CRUD	-6066
▁List	-6067
▁Many	-6068
▁NEXT	-6069
▁ORMs	-6070
▁Post	-6071
▁Zeka	-6072
▁aynı	-6073
▁başl	-6074
▁best	-6075
▁both	-6076
▁bulg	-6077
▁cant	-6078
▁coll	-6079
▁core	-6080
▁equi	-6081
▁expi	-6082
▁geri	-6083
▁hakk	-6084
▁idle	-6085
▁less	-6086
▁mark	-6087
▁nokt	-6088
▁null	-6089
▁part	-6090
▁poss	-6091
▁prof	-6092
▁seri	-6093
▁some	-6094
▁suit	-6095
▁sunu	-6096
▁symp	-6097
▁sıkı	-6098
▁tech	-6099
▁todo	-6100
▁tree	-6101
▁useE	-6102
▁used	-6103
▁vary	-6104
▁week	-6105
▁zeka	-6106
Forwar	-6107
Helper	-6108
Option	-6109
PUBLIC	-6110
alizer	-6111
config	-6112
cusuna	-6113
işikli	-6114
lantıs	-6115
layıcı	-6116
laştır	-6117
lerken	-6118
leştir	-6119
lodash	-6120
medium	-6121
moment	-6122
nlemek	-6123
points	-6124
rasını	-6125
rectly	-6126
resini	-6127
respon	-6128
siyona	-6129
tifika	-6130
tories	-6131
undant	-6132
usunda	-6133
valent	-6134
yonali	-6135
yutunu	-6136
▁ALTER	-6137
▁Bilgi	-6138
▁Break	-6139
▁Build	-6140
▁Debug	-6141
▁Draft	-6142
▁Every	-6143
▁Input	-6144
▁JUnit	-6145
▁Kayıt	-6146
▁Large	-6147
▁Order	-6148
▁Proxy	-6149
▁Repro	-6150
▁Reuse	-6151
▁Tailw	-6152
▁Valid	-6153
▁added	-6154
▁aimed	-6155
▁akışı	-6156
▁apply	-6157
▁async	-6158
▁batch	-6159
▁bazlı	-6160
▁birle	-6161
▁bitir	-6162
▁bozma	-6163
▁calls	-6164
▁chars	-6165
▁defin	-6166
▁farkı	-6167
▁fetch	-6168
▁frequ	-6169
▁fully	-6170
▁geldi	-6171
▁gelen	-6172
▁happy	-6173
▁kopma	-6174
▁kırıl	-6175
▁metin	-6176
▁oturt	-6177
▁parça	-6178
▁planı	-6179
▁react	-6180
▁resim	-6181
▁route	-6182
▁scans	-6183
▁smoke	-6184
▁sorgu	-6185
▁times	-6186
▁trafi	-6187
▁uydur	-6188
▁varlı	-6189
▁yapar	-6190
▁yapay	-6191
▁yerde	-6192
▁zaman	-6193
Control	-6194
Options	-6195
created	-6196
eklenen	-6197
erences	-6198
include	-6199
inistic	-6200
inkedin	-6201
kırmızı	-6202
lamanın	-6203
liyorsa	-6204
nlendir	-6205
plicate	-6206
sistent	-6207
tleneck	-6208
youtube	-6209
zerinde	-6210
ılmayan	-6211
▁Design	-6212
▁Farklı	-6213
▁Kuyruk	-6214
▁Recomm	-6215
▁Remove	-6216
▁Search	-6217
▁Varsay	-6218
▁adresi	-6219
▁analiz	-6220
▁assert	-6221
▁ayarla	-6222
▁ayrımı	-6223
▁bildir	-6224
▁caches	-6225
▁column	-6226
▁cursor	-6227
▁dayalı	-6228
▁destek	-6229
▁detect	-6230
▁dikkat	-6231
▁dimens	-6232
▁ertele	-6233
▁etmeli	-6234
▁facade	-6235
▁follow	-6236
▁geçsin	-6237
▁hangis	-6238
▁hesabı	-6239
▁içerik	-6240
▁kaldır	-6241
▁kaynak	-6242
▁kimlik	-6243
▁kısalt	-6244
▁lodash	-6245
▁mobile	-6246
▁modern	-6247
▁modify	-6248
▁native	-6249
▁olmalı	-6250
▁orders	-6251
▁pretty	-6252
▁python	-6253
▁revers	-6254
▁sadece	-6255
▁screen	-6256
▁served	-6257
▁sınıfa	-6258
▁taking	-6259
▁things	-6260
▁veriyi	-6261
▁çekici	-6262
▁çekmek	-6263
▁çıksın	-6264
▁şeması	-6265
business	-6266
essional	-6267
existent	-6268
headline	-6269
ilebilir	-6270
netimini	-6271
overable	-6272
rulanmış	-6273
▁CASCADE	-6274
▁Default	-6275
▁Discord	-6276
▁Explain	-6277
▁Foreign	-6278
▁Jupyter	-6279
▁Postman	-6280
▁Projeye	-6281
▁Projeyi	-6282
▁Verilen	-6283
▁altında	-6284
▁callers	-6285
▁cleanup	-6286
▁concise	-6287
▁conflic	-6288
▁durumda	-6289
▁eklenir	-6290
▁eksikse	-6291
▁erişimi	-6292
▁execute	-6293
▁gerekti	-6294
▁happens	-6295
▁headers	-6296
▁helpers	-6297
▁imports	-6298
▁include	-6299
▁kalırsa	-6300
▁kanalda	-6301
▁karışık	-6302
▁katmanı	-6303
▁kopuyor	-6304
▁layered	-6305
▁measure	-6306
▁outputs	-6307
▁pencere	-6308
▁provide	-6309
▁running	-6310
▁shaking	-6311
▁signing	-6312
▁startup	-6313
▁storage	-6314
▁submits	-6315
▁symptom	-6316
▁sınırla	-6317
▁sızıntı	-6318
▁tabloda	-6319
▁tahmine	-6320
▁tamamen	-6321
▁tutarlı	-6322
▁updates	-6323
▁varying	-6324
▁şekilde	-6325
Forwarded	-6326
Validator	-6327
artlaştır	-6328
opsiyonel	-6329
rneklerle	-6330
▁Frontend	-6331
▁Kullanım	-6332
▁Requests	-6333
▁Response	-6334
▁Tailwind	-6335
▁applying	-6336
▁arkadaki	-6337
▁ayarları	-6338
▁açılıyor	-6339
▁aşılınca	-6340
▁batching	-6341
▁birlikte	-6342
▁boyutunu	-6343
▁breaking	-6344
▁building	-6345
▁codebase	-6346
▁consider	-6347
▁delegate	-6348
▁dropping	-6349
▁edilmesi	-6350
▁eklenmiş	-6351
▁eklerken	-6352
▁fetching	-6353
▁hakkında	-6354
▁kalkacak	-6355
▁kalkıyor	-6356
▁karışımı	-6357
▁kaybetme	-6358
▁keşifsel	-6359
▁kuralına	-6360
▁linkedin	-6361
▁nedenini	-6362
▁ortamlar	-6363
▁prevents	-6364
▁properly	-6365
▁reproduc	-6366
▁restarts	-6367
▁rotation	-6368
▁sayısını	-6369
▁seviyeye	-6370
▁simplest	-6371
▁slaytlık	-6372
▁suitable	-6373
▁sıradaki	-6374
▁sırasını	-6375
▁sızmamış	-6376
▁triggers	-6377
▁yalnızca	-6378
▁şemasını	-6379
deprecated	-6380
landırmayı	-6381
lantısının	-6382
yonaliteyi	-6383
şlevsellik	-6384
▁Debugging	-6385
▁Reproduce	-6386
▁Timestamp	-6387
▁automates	-6388
▁başlarken	-6389
▁branching	-6390
▁bulguları	-6391
▁collision	-6392
▁correctly	-6393
▁derlemede	-6394
▁dosyasını	-6395
▁duplicate	-6396
▁factories	-6397
▁hızlandır	-6398
▁instagram	-6399
▁konusunda	-6400
▁kullanmak	-6401
▁kullanımı	-6402
▁mesajıyla	-6403
▁noktaları	-6404
▁oversized	-6405
▁practical	-6406
▁practices	-6407
▁redundant	-6408
▁responses	-6409
▁sertifika	-6410
▁splitting	-6411
▁useEffect	-6412
▁versiyona	-6413
ımlılıkları	-6414
▁Adlandırma	-6415
▁Dockerfile	-6416
▁Reflection	-6417
▁Validation	-6418
▁Varsayılan	-6419
▁adlandırma	-6420
▁alınabilir	-6421
▁açıklayıcı	-6422
▁bottleneck	-6423
▁definition	-6424
▁deprecated	-6425
▁equivalent	-6426
▁expiration	-6427
▁extracting	-6428
▁frequently	-6429
▁gerektiren	-6430
▁geçmişinde	-6431
▁hangisinin	-6432
▁importları	-6433
▁internally	-6434
▁kubernetes	-6435
▁kullanılır	-6436
▁kırılmasın	-6437
▁persistent	-6438
▁preserving	-6439
▁reflection	-6440
▁reversible	-6441
▁sunucusuna	-6442
▁tamamlandı	-6443
işkenlerinin	-6444
▁OrderHelper	-6445
▁Profesyonel	-6446
▁Uygulamanın	-6447
▁destructive	-6448
▁differently	-6449
▁durumlarını	-6450
▁kullanıcıya	-6451
▁Requirements	-6452
▁dosyalarının	-6453
▁erişilebilir	-6454
▁normalleştir	-6455
▁optimizasyon	-6456
▁professional	-6457
▁significance	-6458
OrderValidator	-6459
responsibility	-6460
▁Kullanılmayan	-6461
▁destekliyorsa	-6462
▁deterministic	-6463
▁optimizasyonu	-6464
▁significantly	-6465
▁initialization	-6466
▁responsibility	-6467
▁standartlaştır	-6468
▁yapılandırmayı	-6469
.,	-6470
/:	-6471
AD	-6472
DK	-6473
FC	-6474
FO	-6475
HE	-6476
IO	-6477
LF	-6478
ME	-6479
Ma	-6480
OM	-6481
OS	-6482
PA	-6483
RH	-6484
SH	-6485
St	-6486
TH	-6487
To	-6488
VP	-6489
WS	-6490
gh	-6491
mb	-6492
ms	-6493
mu	-6494
nd	-6495
nm	-6496
rı	-6497
uv	-6498
vI	-6499
ATE	-6500
DER	-6501
DEX	-6502
Deb	-6503
Git	-6504
Hub	-6505
LOG	-6506
MIT	-6507
Mem	-6508
ORS	-6509
UTH	-6510
Ver	-6511
ags	-6512
api	-6513
apı	-6514
asa	-6515
ave	-6516
buc	-6517
chm	-6518
cli	-6519
dow	-6520
eld	-6521
eli	-6522
fat	-6523
gel	-6524
hub	-6525
ino	-6526
ior	-6527
kto	-6528
las	-6529
lge	-6530
lis	-6531
mak	-6532
meP	-6533
mey	-6534
mpt	-6535
muş	-6536
nin	-6537
ogg	-6538
old	-6539
olo	-6540
ols	-6541
olu	-6542
ond	-6543
org	-6544
orn	-6545
pen	-6546
pip	-6547
pts	-6548
quo	-6549
ray	-6550
raç	-6551
rev	-6552
rip	-6553
riç	-6554
sub	-6555
sue	-6556
suz	-6557
tik	-6558
ton	-6559
tra	-6560
txt	-6561
uge	-6562
ugh	-6563
unk	-6564
ves	-6565
vet	-6566
via	-6567
whi	-6568
yab	-6569
yml	-6570
ynı	-6571
ysa	-6572
zes	-6573
zle	-6574
çık	-6575
şki	-6576
şle	-6577
şul	-6578
▁BY	-6579
▁Bi	-6580
▁Ca	-6581
▁Er	-6582
▁Fr	-6583
▁Ki	-6584
▁Mo	-6585
▁OR	-6586
▁Ti	-6587
▁fl	-6588
▁kı	-6589
▁ça	-6590
ADME	-6591
Comp	-6592
Dete	-6593
Emit	-6594
HERE	-6595
ITOR	-6596
Java	-6597
RHEL	-6598
Stor	-6599
Vite	-6600
ably	-6601
ague	-6602
alls	-6603
aper	-6604
apps	-6605
ason	-6606
both	-6607
cent	-6608
cide	-6609
cope	-6610
copy	-6611
curl	-6612
dict	-6613
dlib	-6614
duru	-6615
ecik	-6616
enfi	-6617
enue	-6618
erce	-6619
erik	-6620
erli	-6621
esap	-6622
evTo	-6623
gusu	-6624
hich	-6625
home	-6626
ight	-6627
igit	-6628
ikte	-6629
ilip	-6630
ints	-6631
java	-6632
jisi	-6633
ktop	-6634
lank	-6635
lize	-6636
llik	-6637
lmem	-6638
lmez	-6639
load	-6640
logy	-6641
lulu	-6642
lıcı	-6643
madı	-6644
mate	-6645
mimi	-6646
mize	-6647
more	-6648
ncel	-6649
nmez	-6650
oked	-6651
oklu	-6652
olma	-6653
ontm	-6654
opma	-6655
orik	-6656
osen	-6657
oses	-6658
osya	-6659
ours	-6660
pace	-6661
plot	-6662
plug	-6663
pnpm	-6664
ques	-6665
rede	-6666
rene	-6667
reyi	-6668
ries	-6669
rmek	-6670
seab	-6671
ston	-6672
stry	-6673
sump	-6674
sure	-6675
tart	-6676
tarı	-6677
tenv	-6678
tors	-6679
trip	-6680
tırm	-6681
unan	-6682
unca	-6683
unum	-6684
usun	-6685
uyor	-6686
visu	-6687
what	-6688
wser	-6689
xima	-6690
yarn	-6691
zeti	-6692
ılam	-6693
ıtla	-6694
▁AWS	-6695
▁Any	-6696
▁Bit	-6697
▁CRE	-6698
▁Dec	-6699
▁Def	-6700
▁Env	-6701
▁How	-6702
▁JDK	-6703
▁Let	-6704
▁Loc	-6705
▁MON	-6706
▁MVP	-6707
▁Map	-6708
▁Mig	-6709
▁Mon	-6710
▁Per	-6711
▁RFC	-6712
▁SLF	-6713
▁SPA	-6714
▁SSH	-6715
▁Ser	-6716
▁Ses	-6717
▁Ton	-6718
▁URL	-6719
▁aff	-6720
▁ava	-6721
▁ben	-6722
▁cit	-6723
▁cop	-6724
▁dec	-6725
▁dış	-6726
▁etk	-6727
▁fri	-6728
▁hal	-6729
▁hit	-6730
▁hos	-6731
▁ili	-6732
▁işe	-6733
▁lab	-6734
▁mem	-6735
▁mik	-6736
▁mix	-6737
▁nav	-6738
▁pos	-6739
▁suc	-6740
▁yol	-6741
▁şif	-6742
Maven	-6743
Nginx	-6744
State	-6745
analy	-6746
andas	-6747
anize	-6748
antez	-6749
arıya	-6750
asına	-6751
ature	-6752
ayıcı	-6753
build	-6754
buntu	-6755
cover	-6756
custo	-6757
deden	-6758
diffs	-6759
durma	-6760
durup	-6761
empty	-6762
endly	-6763
ermez	-6764
ether	-6765
ethod	-6766
flare	-6767
gered	-6768
house	-6769
icant	-6770
ildly	-6771
imini	-6772
indly	-6773
inion	-6774
ippet	-6775
itest	-6776
kipçi	-6777
larda	-6778
ların	-6779
layan	-6780
laşık	-6781
lying	-6782
meler	-6783
meyen	-6784
mount	-6785
mpede	-6786
mping	-6787
multi	-6788
named	-6789
nceki	-6790
ncesi	-6791
netic	-6792
olves	-6793
phane	-6794
point	-6795
rudan	-6796
saldı	-6797
stack	-6798
tablo	-6799
takes	-6800
tarih	-6801
teler	-6802
tempt	-6803
tence	-6804
tency	-6805
terns	-6806
tubun	-6807
types	-6808
uggle	-6809
unity	-6810
vered	-6811
while	-6812
çerik	-6813
çinde	-6814
ırken	-6815
şmedi	-6816
▁AUTH	-6817
▁Appl	-6818
▁Araç	-6819
▁Aynı	-6820
▁Açık	-6821
▁Boot	-6822
▁CORS	-6823
▁Edge	-6824
▁Exec	-6825
▁Five	-6826
▁HTML	-6827
▁Hash	-6828
▁INFO	-6829
▁Knex	-6830
▁Lang	-6831
▁Name	-6832
▁Open	-6833
▁Plat	-6834
▁Root	-6835
▁Sign	-6836
▁Team	-6837
▁Togg	-6838
▁User	-6839
▁Writ	-6840
▁Yapı	-6841
▁alım	-6842
▁bare	-6843
▁bold	-6844
▁boot	-6845
▁edip	-6846
▁evet	-6847
▁fits	-6848
▁gire	-6849
▁high	-6850
▁hist	-6851
▁http	-6852
▁imza	-6853
▁iste	-6854
▁keys	-6855
▁kind	-6856
▁klas	-6857
▁know	-6858
▁leak	-6859
▁lock	-6860
▁look	-6861
▁masa	-6862
▁mist	-6863
▁mock	-6864
▁node	-6865
▁pino	-6866
▁prat	-6867
▁regr	-6868
▁solo	-6869
▁tags	-6870
▁useC	-6871
▁uses	-6872
▁uyum	-6873
▁uzak	-6874
▁uzun	-6875
▁year	-6876
▁yeri	-6877
▁yolu	-6878
▁çıkt	-6879
Debian	-6880
Determ	-6881
GitHub	-6882
Spring	-6883
Vercel	-6884
arting	-6885
asiyet	-6886
asında	-6887
atever	-6888
beklen	-6889
bucket	-6890
chmark	-6891
cision	-6892
commit	-6893
cribes	-6894
cursor	-6895
ecikme	-6896
ername	-6897
except	-6898
farklı	-6899
fatlar	-6900
github	-6901
icable	-6902
inciri	-6903
inince	-6904
iniyor	-6905
ipient	-6906
jesini	-6907
laması	-6908
latmak	-6909
lensin	-6910
lerden	-6911
lished	-6912
manlık	-6913
meProv	-6914
meline	-6915
merged	-6916
nderen	-6917
normal	-6918
parate	-6919
pasted	-6920
plugin	-6921
quotes	-6922
rating	-6923
tikten	-6924
tırmak	-6925
usages	-6926
within	-6927
ximate	-6928
zellik	-6929
şletim	-6930
▁Alıcı	-6931
▁Avoid	-6932
▁Birim	-6933
▁Cloud	-6934
▁DevTo	-6935
▁Dosya	-6936
▁Error	-6937
▁Hesap	-6938
▁INDEX	-6939
▁Inter	-6940
▁Kimin	-6941
▁Kopma	-6942
▁Light	-6943
▁ORDER	-6944
▁Paper	-6945
▁Pipel	-6946
▁Plain	-6947
▁Reply	-6948
▁Round	-6949
▁STATS	-6950
▁Scope	-6951
▁Start	-6952
▁Sunum	-6953
▁Table	-6954
▁WHERE	-6955
▁Where	-6956
▁Which	-6957
▁Yoksa	-6958
▁amacı	-6959
▁aracı	-6960
▁argon	-6961
▁array	-6962
▁aşımı	-6963
▁bariz	-6964
▁blank	-6965
▁brute	-6966
▁cheat	-6967
▁chunk	-6968
▁denge	-6969
▁digit	-6970
▁edito	-6971
▁effic	-6972
▁entry	-6973
▁essen	-6974
▁flash	-6975
▁fresh	-6976
▁gauge	-6977
▁gelip	-6978
▁gelir	-6979
▁geçme	-6980
▁great	-6981
▁group	-6982
▁guess	-6983
▁hariç	-6984
▁hours	-6985
▁ikisi	-6986
▁incre	-6987
▁insan	-6988
▁issue	-6989
▁klişe	-6990
▁known	-6991
▁knows	-6992
▁koşul	-6993
▁leave	-6994
▁marka	-6995
▁moved	-6996
▁neler	-6997
▁pages	-6998
▁paket	-6999
▁parti	-7000
▁paste	-7001
▁prote	-7002
▁reach	-7003
▁reels	-7004
▁repos	-7005
▁reset	-7006
▁satış	-7007
▁serve	-7008
▁sheet	-7009
▁sizes	-7010
▁skoru	-7011
▁slash	-7012
▁start	-7013
▁sıklı	-7014
▁tarih	-7015
▁think	-7016
▁touch	-7017
▁vague	-7018
▁venue	-7019
▁walls	-7020
▁wants	-7021
▁yayın	-7022
▁yazıp	-7023
▁years	-7024
▁yerel	-7025
▁çoklu	-7026
▁çıkar	-7027
Company	-7028
Storage	-7029
Webpack	-7030
asoning	-7031
authors	-7032
centage	-7033
compose	-7034
discord	-7035
eneyimi	-7036
enfield	-7037
environ	-7038
eralize	-7039
erience	-7040
expired	-7041
gelişti	-7042
ioredis	-7043
itional	-7044
işiklik	-7045
kilenen	-7046
layınca	-7047
lerdeki	-7048
lmemeli	-7049
metrics	-7050
modules	-7051
nyasına	-7052
orchest	-7053
plotlib	-7054
reneurs	-7055
reshing	-7056
rialize	-7057
seaborn	-7058
seconds	-7059
sonrası	-7060
stermek	-7061
traffic	-7062
unların	-7063
vention	-7064
version	-7065
webpack	-7066
ırlıklı	-7067
şkileri	-7068
▁Access	-7069
▁CREATE	-7070
▁Cached	-7071
▁CentOS	-7072
▁Define	-7073
▁Delete	-7074
▁Domain	-7075
▁Ensure	-7076
▁Frontm	-7077
▁Hassas	-7078
▁Jargon	-7079
▁Locate	-7080
▁Logger	-7081
▁Logout	-7082
▁Naming	-7083
▁Persis	-7084
▁Prisma	-7085
▁README	-7086
▁Return	-7087
▁Secret	-7088
▁Server	-7089
▁Socket	-7090
▁Techno	-7091
▁Ubuntu	-7092
▁Vitest	-7093
▁Worked	-7094
▁adding	-7095
▁assump	-7096
▁bottom	-7097
▁bridge	-7098
▁bullet	-7099
▁chosen	-7100
▁decide	-7101
▁diline	-7102
▁dolmuş	-7103
▁dotenv	-7104
▁edilen	-7105
▁edilip	-7106
▁entire	-7107
▁entity	-7108
▁entrep	-7109
▁hiring	-7110
▁hosted	-7111
▁images	-7112
▁jargon	-7113
▁konusu	-7114
▁latest	-7115
▁listed	-7116
▁lookup	-7117
▁medium	-7118
▁merged	-7119
▁miktar	-7120
▁modeli	-7121
▁models	-7122
▁nerede	-7123
▁okusun	-7124
▁okuyab	-7125
▁okuyor	-7126
▁pandas	-7127
▁points	-7128
▁portta	-7129
▁rounds	-7130
▁samimi	-7131
▁second	-7132
▁signin	-7133
▁solves	-7134
▁status	-7135
▁stdlib	-7136
▁stored	-7137
▁strate	-7138
▁string	-7139
▁submit	-7140
▁subsec	-7141
▁sırayı	-7142
▁tekrar	-7143
▁teorik	-7144
▁wildly	-7145
▁window	-7146
▁yapıyı	-7147
▁yolunu	-7148
▁şemayı	-7149
--------	-7150
alidates	-7151
analyzer	-7152
commerce	-7153
criptive	-7154
fication	-7155
larından	-7156
lendirme	-7157
modified	-7158
neticisi	-7159
olmamalı	-7160
rılarını	-7161
tifikası	-7162
ılamıyor	-7163
▁Actions	-7164
▁Araçlar	-7165
▁Caption	-7166
▁Company	-7167
▁Encrypt	-7168
▁Fastify	-7169
▁Gerekli	-7170
▁Hashtag	-7171
▁Logback	-7172
▁MONITOR	-7173
▁Migrate	-7174
▁Projede	-7175
▁Secrets	-7176
▁Writing	-7177
▁alanını	-7178
▁anlayan	-7179
▁arasına	-7180
▁attempt	-7181
▁average	-7182
▁ayarlan	-7183
▁blindly	-7184
▁browser	-7185
▁bulunan	-7186
▁cleared	-7187
▁concept	-7188
▁covered	-7189
▁degrade	-7190
▁desktop	-7191
▁dolunca	-7192
▁dumping	-7193
▁entries	-7194
▁essence	-7195
▁exactly	-7196
▁exceeds	-7197
▁exposes	-7198
▁factors	-7199
▁failure	-7200
▁gecikme	-7201
▁gerekli	-7202
▁geçerli	-7203
▁girecek	-7204
▁inspect	-7205
▁içermez	-7206
▁kalmadı	-7207
▁kanıtla	-7208
▁kurtarı	-7209
▁kısaldı	-7210
▁latency	-7211
▁loglama	-7212
▁olmayan	-7213
▁opinion	-7214
▁preview	-7215
▁problem	-7216
▁reading	-7217
▁reduced	-7218
▁replace	-7219
▁respons	-7220
▁results	-7221
▁revoked	-7222
▁seconds	-7223
▁senaryo	-7224
▁sisteme	-7225
▁snippet	-7226
▁sorgusu	-7227
▁sorunlu	-7228
▁support	-7229
▁surface	-7230
▁takipçi	-7231
▁theming	-7232
▁tooling	-7233
▁unified	-7234
▁verdict	-7235
▁whether	-7236
▁winston	-7237
▁working	-7238
▁yorumla	-7239
▁zinciri	-7240
▁çalıyor	-7241
▁çekilip	-7242
▁çıkıyor	-7243
▁şifresi	-7244
Memcached	-7245
customize	-7246
discordjs	-7247
ecosystem	-7248
endpoints	-7249
farklıysa	-7250
fullstack	-7251
migration	-7252
paragraph	-7253
retiliyor	-7254
workflows	-7255
zellikler	-7256
zeltmeler	-7257
▁Açıklama	-7258
▁Beklenen	-7259
▁Compiler	-7260
▁Decision	-7261
▁DevTools	-7262
▁Language	-7263
▁Mektubun	-7264
▁Modified	-7265
▁Platform	-7266
▁Practice	-7267
▁Settings	-7268
▁Timeline	-7269
▁Toggling	-7270
▁actually	-7271
▁affected	-7272
▁analyzer	-7273
▁anlatmak	-7274
▁artırmak	-7275
▁audience	-7276
▁bilgiler	-7277
▁bunların	-7278
▁carousel	-7279
▁citation	-7280
▁concepts	-7281
▁decision	-7282
▁deneyimi	-7283
▁describe	-7284
▁directly	-7285
▁duration	-7286
▁durdurup	-7287
▁dışarıya	-7288
▁edilmedi	-7289
▁elements	-7290
▁estimate	-7291
▁etkisini	-7292
▁fallback	-7293
▁friendly	-7294
▁handlers	-7295
▁istekler	-7296
▁kalmasın	-7297
▁kanaldan	-7298
▁kelimeyi	-7299
▁listeler	-7300
▁machines	-7301
▁maturity	-7302
▁mistakes	-7303
▁objesini	-7304
▁optional	-7305
▁orphaned	-7306
▁parantez	-7307
▁patterns	-7308
▁position	-7309
▁pratikte	-7310
▁previous	-7311
▁produces	-7312
▁reddeden	-7313
▁registry	-7314
▁separate	-7315
▁seviyede	-7316
▁sorunlar	-7317
▁sorunsuz	-7318
▁stampede	-7319
▁struggle	-7320
▁succeeds	-7321
▁sıfatlar	-7322
▁tablolar	-7323
▁tarayıcı	-7324
▁tutarsız	-7325
▁unaccept	-7326
▁uncached	-7327
▁username	-7328
▁uyumlulu	-7329
▁uzmanlık	-7330
▁warnings	-7331
▁whatever	-7332
▁yakalama	-7333
▁yaklaşık	-7334
▁yapmıyor	-7335
Determines	-7336
geliştirme	-7337
meProvider	-7338
revalidate	-7339
steriyorsa	-7340
visualizer	-7341
▁Applicant	-7342
▁Başlangıç	-7343
▁Bitbucket	-7344
▁Etkilenen	-7345
▁Execution	-7346
▁Interview	-7347
▁Pipelines	-7348
▁Signature	-7349
▁arkasında	-7350
▁available	-7351
▁başarıyla	-7352
▁başvurusu	-7353
▁benchmark	-7354
▁community	-7355
▁configure	-7356
▁derlensin	-7357
▁describes	-7358
▁dosyasına	-7359
▁durumunda	-7360
▁ecosystem	-7361
▁efficient	-7362
▁extracted	-7363
▁freshness	-7364
▁geçtikten	-7365
▁increases	-7366
▁injection	-7367
▁justified	-7368
▁korunuyor	-7369
▁koşulları	-7370
▁loglanmaz	-7371
▁paketleri	-7372
▁penceresi	-7373
▁preserves	-7374
▁projedeki	-7375
▁published	-7376
▁reasoning	-7377
▁recipient	-7378
▁recommend	-7379
▁rejection	-7380
▁reproduce	-7381
▁saklanmaz	-7382
▁silinince	-7383
▁siliniyor	-7384
▁sonuçları	-7385
▁statement	-7386
▁sırasıyla	-7387
▁triggered	-7388
▁verilmeli	-7389
▁yapılacak	-7390
▁yazılacak	-7391
▁yazılıyor	-7392
▁çıktısını	-7393
beklenmeyen	-7394
rneklerdeki	-7395
▁Cloudflare	-7396
▁Hassasiyet	-7397
▁JavaScript	-7398
▁Lighthouse	-7399
▁Monitoring	-7400
▁Production	-7401
▁Refreshing	-7402
▁Technology	-7403
▁additional	-7404
▁alanlarını	-7405
▁applicable	-7406
▁assumption	-7407
▁başlayınca	-7408
▁delegation	-7409
▁determines	-7410
▁experience	-7411
▁formatında	-7412
▁generalize	-7413
▁greenfield	-7414
▁hashlemede	-7415
▁ilişkileri	-7416
▁introduced	-7417
▁invalidate	-7418
▁kaynakları	-7419
▁kullanmalı	-7420
▁kullanımda	-7421
▁loglarında	-7422
▁matplotlib	-7423
▁middleware	-7424
▁paragraphs	-7425
▁percentage	-7426
▁protection	-7427
▁regression	-7428
▁restarting	-7429
▁saklanıyor	-7430
▁seviyeleri	-7431
▁sistemiyle	-7432
▁stratejisi	-7433
▁techniques	-7434
▁underlying	-7435
▁uygulaması	-7436
▁verildiyse	-7437
▁Frontmatter	-7438
▁Persistence	-7439
▁approximate	-7440
▁blockquotes	-7441
▁descriptive	-7442
▁dosyasından	-7443
▁invalidates	-7444
▁klişelerden	-7445
▁kullanmamış	-7446
▁kullanırken	-7447
▁loglanmasın	-7448
▁opinionated	-7449
▁preferences	-7450
▁raporlanmış	-7451
▁sertifikası	-7452
▁servislerin	-7453
▁subsections	-7454
orchestrating	-7455
▁Invalidation	-7456
▁alınabiliyor	-7457
▁başlatılınca	-7458
▁computations	-7459
▁editorialize	-7460
▁etkileşimini	-7461
▁explanations	-7462
▁formatlarını	-7463
▁geçersizleri	-7464
▁isimlendirme	-7465
▁kaybolmamalı	-7466
▁kullanılıyor	-7467
▁localStorage	-7468
▁measurements	-7469
▁modification	-7470
▁okunabiliyor	-7471
▁okuyabiliyor	-7472
▁reproducible	-7473
▁unacceptably	-7474
▁ThemeProvider	-7475
▁ayarlanabilir	-7476
▁dosyalarından	-7477
▁entrepreneurs	-7478
▁veritabanında	-7479
ımlılıklarından	-7480
▁Recommendation	-7481
▁kullanılamıyor	-7482
▁kurtarılabilir	-7483
▁çalıştırılınca	-7484
▁profesyonelleri	-7485
▁yapılandırılmış	-7486
+.	-7487
Ba	-7488
CH	-7489
Ek	-7490
FF	-7491
GE	-7492
Go	-7493
JI	-7494
Ke	-7495
LD	-7496
SO	-7497
Tr	-7498
__	-7499
az	-7500
bl	-7501
by	-7502
db	-7503
gı	-7504
lt	-7505
pe	-7506
rg	-7507
tp	-7508
ça	-7509
..)	-7510
Bug	-7511
Did	-7512
ECR	-7513
ECT	-7514
Fix	-7515
How	-7516
ING	-7517
IST	-7518
Key	-7519
Kur	-7520
LRA	-7521
Lis	-7522
Mid	-7523
NGE	-7524
One	-7525
Pod	-7526
Pre	-7527
SEL	-7528
Say	-7529
Sec	-7530
TCH	-7531
TLS	-7532
Tem	-7533
Tim	-7534
Tok	-7535
aht	-7536
aka	-7537
app	-7538
apt	-7539
bil	-7540
car	-7541
cei	-7542
cle	-7543
day	-7544
dsc	-7545
ear	-7546
esl	-7547
etc	-7548
fta	-7549
ful	-7550
hes	-7551
iFi	-7552
ied	-7553
ies	-7554
igu	-7555
kay	-7556
kea	-7557
kor	-7558
lex	-7559
lop	-7560
map	-7561
ned	-7562
now	-7563
off	-7564
ogy	-7565
onu	-7566
pac	-7567
ppy	-7568
ram	-7569
rir	-7570
rne	-7571
rog	-7572
sat	-7573
tiş	-7574
uff	-7575
vam	-7576
yum	-7577
zde	-7578
zin	-7579
zla	-7580
zun	-7581
çel	-7582
çes	-7583
ıpl	-7584
şeb	-7585
şme	-7586
▁(#	-7587
▁()	-7588
▁Ah	-7589
▁db	-7590
▁uc	-7591
Ekib	-7592
Feat	-7593
Goog	-7594
HGET	-7595
Hata	-7596
Host	-7597
ISTS	-7598
JIRA	-7599
Lint	-7600
Most	-7601
PIRE	-7602
PUSH	-7603
SECR	-7604
Sign	-7605
Test	-7606
Type	-7607
What	-7608
adan	-7609
adar	-7610
adaş	-7611
anış	-7612
apsh	-7613
artb	-7614
arım	-7615
azım	-7616
bout	-7617
ceri	-7618
ched	-7619
ches	-7620
dent	-7621
eman	-7622
enes	-7623
eral	-7624
exci	-7625
gMap	-7626
gate	-7627
gend	-7628
hash	-7629
http	-7630
iece	-7631
ills	-7632
ilme	-7633
inol	-7634
ivas	-7635
işir	-7636
just	-7637
keti	-7638
kets	-7639
ktan	-7640
late	-7641
lebi	-7642
losu	-7643
ltın	-7644
mary	-7645
ması	-7646
maya	-7647
moji	-7648
neti	-7649
offs	-7650
otur	-7651
pine	-7652
post	-7653
rast	-7654
refs	-7655
reye	-7656
slop	-7657
tech	-7658
trib	-7659
ttık	-7660
uate	-7661
ulum	-7662
utho	-7663
vaka	-7664
ways	-7665
ıkış	-7666
ılış	-7667
ımla	-7668
ıyla	-7669
ışma	-7670
▁GET	-7671
▁Hem	-7672
▁ISO	-7673
▁OFF	-7674
▁OOM	-7675
▁Org	-7676
▁Red	-7677
▁TLD	-7678
▁ack	-7679
▁amb	-7680
▁ara	-7681
▁ban	-7682
▁cla	-7683
▁dal	-7684
▁did	-7685
▁div	-7686
▁fut	-7687
▁fır	-7688
▁gap	-7689
▁hot	-7690
▁iki	-7691
▁kil	-7692
▁kıl	-7693
▁mut	-7694
▁niş	-7695
▁out	-7696
▁sty	-7697
▁ton	-7698
▁tsc	-7699
▁şir	-7700
Build	-7701
Cache	-7702
Frame	-7703
Giriş	-7704
Inter	-7705
Kayıt	-7706
LIMIT	-7707
MySQL	-7708
Proto	-7709
React	-7710
Saygı	-7711
Temel	-7712
Token	-7713
Trans	-7714
ahtar	-7715
ancer	-7716
arını	-7717
aside	-7718
ating	-7719
ative	-7720
bable	-7721
black	-7722
coded	-7723
crede	-7724
daily	-7725
dible	-7726
earer	-7727
ellek	-7728
endir	-7729
guard	-7730
hangi	-7731
heses	-7732
itici	-7733
işimi	-7734
kerse	-7735
ketle	-7736
lanma	-7737
lanır	-7738
ledge	-7739
lenir	-7740
luluk	-7741
media	-7742
memiş	-7743
mfort	-7744
nginx	-7745
ogram	-7746
orted	-7747
osing	-7748
paced	-7749
parır	-7750
ploya	-7751
props	-7752
riate	-7753
riyor	-7754
rough	-7755
shake	-7756
shape	-7757
sites	-7758
tener	-7759
tişim	-7760
token	-7761
undan	-7762
yorum	-7763
ılanı	-7764
ıplar	-7765
▁...)	-7766
▁Body	-7767
▁Eval	-7768
▁HSET	-7769
▁Head	-7770
▁Jour	-7771
▁Long	-7772
▁Look	-7773
▁Make	-7774
▁PING	-7775
▁STAR	-7776
▁Site	-7777
▁Stru	-7778
▁Uzun	-7779
▁WiFi	-7780
▁adet	-7781
▁asıl	-7782
▁bilg	-7783
▁brac	-7784
▁bran	-7785
▁cast	-7786
▁cert	-7787
▁clos	-7788
▁days	-7789
▁eder	-7790
▁edit	-7791
▁eski	-7792
▁fast	-7793
▁gets	-7794
▁heat	-7795
▁hype	-7796
▁last	-7797
▁lies	-7798
▁loop	-7799
▁meme	-7800
▁none	-7801
▁okum	-7802
▁olma	-7803
▁onay	-7804
▁prop	-7805
▁reel	-7806
▁rele	-7807
▁ruff	-7808
▁rule	-7809
▁saat	-7810
▁sequ	-7811
▁tart	-7812
▁task	-7813
▁view	-7814
Bugfix	-7815
Google	-7816
LRANGE	-7817
Method	-7818
SECRET	-7819
SELECT	-7820
apshot	-7821
behind	-7822
ceives	-7823
ctures	-7824
deneyi	-7825
docker	-7826
dscape	-7827
ductor	-7828
ential	-7829
eslint	-7830
header	-7831
iguous	-7832
inizin	-7833
işleri	-7834
kaydet	-7835
keaway	-7836
ketler	-7837
linter	-7838
logout	-7839
mektir	-7840
netimi	-7841
noEmit	-7842
option	-7843
oturum	-7844
reload	-7845
resler	-7846
rogant	-7847
string	-7848
ticket	-7849
ttıkça	-7850
usible	-7851
çesini	-7852
ştirir	-7853
▁About	-7854
▁Altın	-7855
▁Autho	-7856
▁Emoji	-7857
▁Klişe	-7858
▁LPUSH	-7859
▁Names	-7860
▁Reels	-7861
▁Silme	-7862
▁Yazım	-7863
▁again	-7864
▁annot	-7865
▁başla	-7866
▁catch	-7867
▁could	-7868
▁deste	-7869
▁devam	-7870
▁duydu	-7871
▁eksen	-7872
▁enter	-7873
▁fazla	-7874
▁frame	-7875
▁grafi	-7876
▁inclu	-7877
▁isten	-7878
▁kadar	-7879
▁logic	-7880
▁means	-7881
▁media	-7882
▁mount	-7883
▁navig	-7884
▁niche	-7885
▁older	-7886
▁piece	-7887
▁props	-7888
▁resmi	-7889
▁sayar	-7890
▁sayfa	-7891
▁seman	-7892
▁shape	-7893
▁share	-7894
▁story	-7895
▁subqu	-7896
▁suite	-7897
▁sınır	-7898
▁teams	-7899
▁terms	-7900
▁three	-7901
▁today	-7902
▁trade	-7903
▁trans	-7904
▁ucuna	-7905
▁unrec	-7906
▁width	-7907
Content	-7908
Feature	-7909
Kurulum	-7910
Problem	-7911
Release	-7912
Timeout	-7913
adaşını	-7914
alogies	-7915
artbeat	-7916
bilgisi	-7917
chestra	-7918
deneyim	-7919
detmeli	-7920
excited	-7921
inology	-7922
ivasyon	-7923
lantıyı	-7924
larımla	-7925
nection	-7926
postası	-7927
refresh	-7928
satları	-7929
timeout	-7930
şebilir	-7931
▁Ahrefs	-7932
▁Bearer	-7933
▁Branch	-7934
▁Direct	-7935
▁EXISTS	-7936
▁EXPIRE	-7937
▁Engine	-7938
▁Length	-7939
▁OFFSET	-7940
▁Strict	-7941
▁System	-7942
▁Veriyi	-7943
▁acknow	-7944
▁adjust	-7945
▁alpine	-7946
▁always	-7947
▁approp	-7948
▁attrib	-7949
▁açılış	-7950
▁banned	-7951
▁beceri	-7952
▁bellek	-7953
▁boşluk	-7954
▁button	-7955
▁causes	-7956
▁clippy	-7957
▁declar	-7958
▁define	-7959
▁dtypes	-7960
▁expect	-7961
▁formal	-7962
▁future	-7963
▁hashle	-7964
▁içeren	-7965
▁kaydet	-7966
▁keyset	-7967
▁killer	-7968
▁labels	-7969
▁legend	-7970
▁matter	-7971
▁memory	-7972
▁method	-7973
▁notice	-7974
▁params	-7975
▁parent	-7976
▁player	-7977
▁return	-7978
▁rotate	-7979
▁satırı	-7980
▁scenes	-7981
▁simple	-7982
▁skills	-7983
▁slayta	-7984
▁statik	-7985
▁strict	-7986
▁tablet	-7987
▁talebi	-7988
▁toplam	-7989
▁tropes	-7990
▁winner	-7991
▁within	-7992
▁yetmez	-7993
EventLis	-7994
Interval	-7995
Security	-7996
Signific	-7997
carousel	-7998
diyagram	-7999
doldurma	-8000
estigate	-8001
lantılar	-8002
mlesiyle	-8003
optional	-8004
ployable	-8005
practice	-8006
rization	-8007
rulamaya	-8008
çelendir	-8009
▁Address	-8010
▁Central	-8011
▁Closing	-8012
▁Journal	-8013
▁Opening	-8014
▁Upgrade	-8015
▁Uzunluk	-8016
▁address	-8017
▁adımlar	-8018
▁anahtar	-8019
▁applied	-8020
▁backoff	-8021
▁blocked	-8022
▁certbot	-8023
▁clauses	-8024
▁cliches	-8025
▁comfort	-8026
▁commits	-8027
▁compile	-8028
▁confirm	-8029
▁contact	-8030
▁devreye	-8031
▁digital	-8032
▁duyarım	-8033
▁eksikli	-8034
▁etiketi	-8035
▁exports	-8036
▁finding	-8037
▁general	-8038
▁giriyor	-8039
▁halinde	-8040
▁hashtag	-8041
▁heatmap	-8042
▁kapanış	-8043
▁kapatır	-8044
▁koparır	-8045
▁korunur	-8046
▁mobilde	-8047
▁painful	-8048
▁parçası	-8049
▁primary	-8050
▁removed	-8051
▁reviews	-8052
▁routine	-8053
▁scatter	-8054
▁sources	-8055
▁tablosu	-8056
▁timeout	-8057
▁unmount	-8058
▁uygular	-8059
▁şifreyi	-8060
Transport	-8061
available	-8062
blacklist	-8063
developer	-8064
entiating	-8065
lantıları	-8066
lılıkları	-8067
▁Consider	-8068
▁Evaluate	-8069
▁Headline	-8070
▁Organize	-8071
▁abstract	-8072
▁adresler	-8073
▁arrogant	-8074
▁arttıkça	-8075
▁balancer	-8076
▁başvurdu	-8077
▁brackets	-8078
▁branched	-8079
▁compiler	-8080
▁conflict	-8081
▁contrast	-8082
▁credible	-8083
▁dallanır	-8084
▁etiketle	-8085
▁exported	-8086
▁generics	-8087
▁gerçekçi	-8088
▁grafikte	-8089
▁ifadeler	-8090
▁iletişim	-8091
▁kalıplar	-8092
▁kararını	-8093
▁kodundan	-8094
▁kurulumu	-8095
▁leverage	-8096
▁mutluluk	-8097
▁okumadan	-8098
▁olmaktan	-8099
▁paragraf	-8100
▁possible	-8101
▁prefixed	-8102
▁probable	-8103
▁question	-8104
▁receives	-8105
▁releases	-8106
▁semantic	-8107
▁snapshot	-8108
▁sonuçlar	-8109
▁soruları	-8110
▁takeaway	-8111
▁tanımsız	-8112
▁tartışma	-8113
▁useState	-8114
▁yapmadan	-8115
Ekibinizin	-8116
Kubernetes	-8117
Middleware	-8118
Prevention	-8119
arkadaşını	-8120
korelasyon	-8121
ndermektir	-8122
▁ConfigMap	-8123
▁Diagnosis	-8124
▁Heartbeat	-8125
▁Namespace	-8126
▁Structure	-8127
▁Technical	-8128
▁ambiguous	-8129
▁analogies	-8130
▁bilgisini	-8131
▁conductor	-8132
▁confident	-8133
▁conflicts	-8134
▁dimension	-8135
▁edilmemiş	-8136
▁etkileşim	-8137
▁geçişleri	-8138
▁handshake	-8139
▁histogram	-8140
▁important	-8141
▁including	-8142
▁isteniyor	-8143
▁landscape	-8144
▁orchestra	-8145
▁plausible	-8146
▁sızıntısı	-8147
▁timestamp	-8148
▁translate	-8149
▁çalışması	-8150
▁çalışmaya	-8151
▁şirketler	-8152
Limitations	-8153
ndermiyorsa	-8154
▁Connection	-8155
▁Reddetmeli	-8156
▁algorithms	-8157
▁attributes	-8158
▁commitleri	-8159
▁configured	-8160
▁deployable	-8161
▁dilbilgisi	-8162
▁dimensions	-8163
▁dosyasının	-8164
▁estimation	-8165
▁fırsatları	-8166
▁geçersizse	-8167
▁motivasyon	-8168
▁navigation	-8169
▁paragrafta	-8170
▁paylaşılan	-8171
▁sequential	-8172
▁simplified	-8173
▁structures	-8174
▁subqueries	-8175
▁typescript	-8176
Saygılarımla	-8177
Significance	-8178
requirements	-8179
▁acknowledge	-8180
▁annotations	-8181
▁appropriate	-8182
▁birleştirir	-8183
▁birleştirme	-8184
▁comfortable	-8185
▁comparisons	-8186
▁declaration	-8187
▁healthcheck	-8188
▁improvement	-8189
▁investigate	-8190
▁paragraflar	-8191
▁parentheses	-8192
▁recoverable	-8193
▁tarihçesini	-8194
▁terminology	-8195
▁useCallback	-8196
▁varsayılanı	-8197
EventListener	-8198
▁componentDid	-8199
▁veritabanına	-8200
▁Authorization	-8201
▁gerekçelendir	-8202
▁karşılaştırma	-8203
▁possibilities	-8204
▁serialization	-8205
▁unrecoverable	-8206
▁sınırlılıkları	-8207
▁differentiating	-8208
>,	-8209
AG	-8210
Ch	-8211
IA	-8212
ID	-8213
JS	-8214
Mo	-8215
Un	-8216
Up	-8217
io	-8218
pT	-8219
rd	-8220
▁Q	-8221
CAG	-8222
Eit	-8223
Ele	-8224
FRE	-8225
RIA	-8226
Som	-8227
UID	-8228
Web	-8229
__/	-8230
add	-8231
arb	-8232
ath	-8233
avo	-8234
ber	-8235
box	-8236
but	-8237
def	-8238
doc	-8239
ely	-8240
enu	-8241
fal	-8242
fet	-8243
fon	-8244
gid	-8245
has	-8246
hns	-8247
ial	-8248
ibr	-8249
ink	-8250
its	-8251
jsx	-8252
kle	-8253
kta	-8254
kth	-8255
led	-8256
lls	-8257
mde	-8258
moi	-8259
mon	-8260
mum	-8261
oci	-8262
ole	-8263
opa	-8264
pti	-8265
rec	-8266
req	-8267
rid	-8268
row	-8269
sed	-8270
sum	-8271
try	-8272
tsx	-8273
uin	-8274
uly	-8275
urp	-8276
wal	-8277
şen	-8278
▁(:	-8279
▁//	-8280
▁AA	-8281
▁LI	-8282
▁Ol	-8283
▁On	-8284
▁PA	-8285
▁PK	-8286
▁PR	-8287
▁Ph	-8288
▁Pl	-8289
▁__	-8290
▁ty	-8291
▁vw	-8292
Boot	-8293
Form	-8294
HTML	-8295
Konu	-8296
Null	-8297
PTCH	-8298
Will	-8299
ablo	-8300
acts	-8301
ades	-8302
ager	-8303
ajor	-8304
amic	-8305
ange	-8306
anup	-8307
apes	-8308
ards	-8309
arty	-8310
atio	-8311
aves	-8312
cres	-8313
dapt	-8314
dete	-8315
done	-8316
ecks	-8317
egex	-8318
else	-8319
erve	-8320
gets	-8321
gles	-8322
greg	-8323
hird	-8324
html	-8325
ince	-8326
ined	-8327
irdi	-8328
iyle	-8329
lard	-8330
lear	-8331
live	-8332
mari	-8333
mbur	-8334
nect	-8335
ongs	-8336
only	-8337
ound	-8338
plit	-8339
prop	-8340
push	-8341
ract	-8342
serv	-8343
sing	-8344
subs	-8345
sues	-8346
tbot	-8347
that	-8348
time	-8349
tory	-8350
uery	-8351
urns	-8352
used	-8353
veri	-8354
ving	-8355
with	-8356
wrap	-8357
yond	-8358
zone	-8359
ırda	-8360
ştir	-8361
▁Aim	-8362
▁DOM	-8363
▁Dis	-8364
▁Get	-8365
▁JSX	-8366
▁Squ	-8367
▁Zod	-8368
▁bad	-8369
▁dyn	-8370
▁foo	-8371
▁get	-8372
▁hei	-8373
▁hol	-8374
▁jit	-8375
▁mal	-8376
▁nar	-8377
▁non	-8378
▁rem	-8379
▁try	-8380
▁typ	-8381
▁wal	-8382
-----	-8383
Chang	-8384
FRESH	-8385
Input	-8386
Mount	-8387
PTCHA	-8388
Somet	-8389
Space	-8390
agate	-8391
anded	-8392
catch	-8393
clear	-8394
const	-8395
ented	-8396
erves	-8397
faces	-8398
false	-8399
ffset	-8400
first	-8401
focus	-8402
gress	-8403
igits	-8404
index	-8405
isual	-8406
jects	-8407
johns	-8408
lıkta	-8409
match	-8410
neath	-8411
olean	-8412
ontal	-8413
party	-8414
roves	-8415
sisti	-8416
stall	-8417
state	-8418
stead	-8419
strap	-8420
sword	-8421
terac	-8422
tests	-8423
thing	-8424
title	-8425
tract	-8426
uffic	-8427
undef	-8428
ustom	-8429
utter	-8430
witch	-8431
yoksa	-8432
youts	-8433
▁ARIA	-8434
▁Adım	-8435
▁Bile	-8436
▁Flex	-8437
▁Grid	-8438
▁Hide	-8439
▁Hook	-8440
▁Konu	-8441
▁Mock	-8442
▁Opti	-8443
▁POST	-8444
▁Path	-8445
▁Pres	-8446
▁Pull	-8447
▁Show	-8448
▁UUID	-8449
▁WCAG	-8450
▁Work	-8451
▁Wrap	-8452
▁adım	-8453
▁anda	-8454
▁aste	-8455
▁ayrı	-8456
▁blur	-8457
▁divs	-8458
▁done	-8459
▁edge	-8460
▁enum	-8461
▁even	-8462
▁flex	-8463
▁garb	-8464
▁half	-8465
▁heap	-8466
▁here	-8467
▁icon	-8468
▁isol	-8469
▁keep	-8470
▁libr	-8471
▁line	-8472
▁link	-8473
▁mate	-8474
▁meet	-8475
▁ment	-8476
▁menu	-8477
▁mism	-8478
▁once	-8479
▁ones	-8480
▁pend	-8481
▁purp	-8482
▁side	-8483
▁skip	-8484
▁stay	-8485
▁subs	-8486
▁swal	-8487
▁them	-8488
▁went	-8489
▁were	-8490
▁wrap	-8491
------	-8492
Change	-8493
Checks	-8494
Either	-8495
Update	-8496
WillUn	-8497
argets	-8498
atches	-8499
avoida	-8500
bottom	-8501
button	-8502
cribed	-8503
ctured	-8504
detect	-8505
formed	-8506
ically	-8507
işince	-8508
lardan	-8509
method	-8510
moized	-8511
ncelle	-8512
onnect	-8513
opaque	-8514
pTypes	-8515
return	-8516
rowing	-8517
status	-8518
sumers	-8519
teners	-8520
tional	-8521
uinely	-8522
velope	-8523
verity	-8524
şenler	-8525
▁After	-8526
▁Clear	-8527
▁Email	-8528
▁Enter	-8529
▁Event	-8530
▁LIMIT	-8531
▁Never	-8532
▁Olası	-8533
▁PATCH	-8534
▁Phone	-8535
▁Place	-8536
▁Query	-8537
▁Regex	-8538
▁Sonra	-8539
▁Split	-8540
▁Tablo	-8541
▁adapt	-8542
▁alıcı	-8543
▁artif	-8544
▁aside	-8545
▁ayarı	-8546
▁başlı	-8547
▁below	-8548
▁casts	-8549
▁chaos	-8550
▁codes	-8551
▁decor	-8552
▁direc	-8553
▁eager	-8554
▁fails	-8555
▁fixed	-8556
▁girdi	-8557
▁horiz	-8558
▁ident	-8559
▁inten	-8560
▁kodda	-8561
▁label	-8562
▁leaks	-8563
▁level	-8564
▁lives	-8565
▁major	-8566
▁nodes	-8567
▁order	-8568
▁other	-8569
▁range	-8570
▁ratio	-8571
▁reorg	-8572
▁retry	-8573
▁rigid	-8574
▁sense	-8575
▁sonda	-8576
▁tells	-8577
▁third	-8578
▁those	-8579
▁throw	-8580
▁truly	-8581
▁unexp	-8582
▁units	-8583
▁weeks	-8584
▁would	-8585
▁çıktı	-8586
Element	-8587
Emitter	-8588
REFRESH	-8589
alarını	-8590
cessing	-8591
cleanup	-8592
content	-8593
creleri	-8594
default	-8595
encoded	-8596
htmlFor	-8597
invalid	-8598
llenmiş	-8599
maining	-8600
mburger	-8601
nerilen	-8602
ociated	-8603
pending	-8604
returns	-8605
sistive	-8606
through	-8607
visible	-8608
▁Accept	-8609
▁Common	-8610
▁Encode	-8611
▁Formik	-8612
▁Method	-8613
▁Observ	-8614
▁Result	-8615
▁Squash	-8616
▁aggreg	-8617
▁around	-8618
▁beyond	-8619
▁cannot	-8620
▁checks	-8621
▁custom	-8622
▁digits	-8623
▁during	-8624
▁effect	-8625
▁except	-8626
▁failed	-8627
▁footer	-8628
▁guards	-8629
▁height	-8630
▁inputs	-8631
▁issues	-8632
▁jitter	-8633
▁keşfet	-8634
▁leaves	-8635
▁longer	-8636
▁member	-8637
▁mental	-8638
▁middle	-8639
▁mimari	-8640
▁object	-8641
▁offset	-8642
▁passed	-8643
▁shades	-8644
▁shapes	-8645
▁stages	-8646
▁starts	-8647
▁styles	-8648
▁switch	-8649
▁timing	-8650
▁typing	-8651
▁unsubs	-8652
▁unused	-8653
▁visual	-8654
▁walkth	-8655
▁widths	-8656
alizable	-8657
cresiyle	-8658
document	-8659
expanded	-8660
exponent	-8661
internal	-8662
mization	-8663
progress	-8664
rialized	-8665
setState	-8666
▁CAPTCHA	-8667
▁Certbot	-8668
▁Disable	-8669
▁Extract	-8670
▁Flexbox	-8671
▁Sonunda	-8672
▁against	-8673
▁başında	-8674
▁belongs	-8675
▁boolean	-8676
▁buttons	-8677
▁changed	-8678
▁closure	-8679
▁clutter	-8680
▁convert	-8681
▁decoded	-8682
▁dynamic	-8683
▁eklenen	-8684
▁filters	-8685
▁garbage	-8686
▁history	-8687
▁holding	-8688
▁install	-8689
▁instead	-8690
▁integer	-8691
▁interac	-8692
▁layouts	-8693
▁library	-8694
▁listing	-8695
▁matches	-8696
▁minimum	-8697
▁objects	-8698
▁outline	-8699
▁pairing	-8700
▁parsing	-8701
▁payload	-8702
▁pending	-8703
▁purpose	-8704
▁renders	-8705
▁runtime	-8706
▁satırda	-8707
▁sayfayı	-8708
▁screens	-8709
▁segment	-8710
▁styling	-8711
▁swallow	-8712
▁sırayla	-8713
▁targets	-8714
▁telefon	-8715
▁tespiti	-8716
▁through	-8717
▁toggles	-8718
▁typical	-8719
▁widgets	-8720
Bootstrap	-8721
FormEvent	-8722
HTMLInput	-8723
Konuşmacı	-8724
Something	-8725
WebSocket	-8726
avoidable	-8727
criptions	-8728
important	-8729
loglardan	-8730
propagate	-8731
ufficient	-8732
undefined	-8733
▁Başlıkta	-8734
▁Password	-8735
▁Preserve	-8736
▁Required	-8737
▁Validate	-8738
▁Workflow	-8739
▁adımları	-8740
▁approves	-8741
▁asterisk	-8742
▁başlıklı	-8743
▁beklenen	-8744
▁closures	-8745
▁contract	-8746
▁deserves	-8747
▁division	-8748
▁durdurma	-8749
▁envelope	-8750
▁headline	-8751
▁markdown	-8752
▁matching	-8753
▁memoized	-8754
▁nedenler	-8755
▁paginate	-8756
▁parçanın	-8757
▁relative	-8758
▁removing	-8759
▁requests	-8760
▁reviewer	-8761
▁severity	-8762
▁silently	-8763
▁suppress	-8764
▁tsconfig	-8765
▁viewport	-8766
▁yazarken	-8767
NullChecks	-8768
ncellenmiş	-8769
rselleştir	-8770
setTimeout	-8771
▁Branching	-8772
▁Component	-8773
▁PropTypes	-8774
▁Reconnect	-8775
▁artifacts	-8776
▁assistive	-8777
▁checklist	-8778
▁commented	-8779
▁constants	-8780
▁consumers	-8781
▁debugging	-8782
▁detection	-8783
▁directory	-8784
▁dosyadaki	-8785
▁focusable	-8786
▁following	-8787
▁genuinely	-8788
▁hamburger	-8789
▁interface	-8790
▁invisible	-8791
▁isolation	-8792
▁kaynaklar	-8793
▁listeners	-8794
▁malformed	-8795
▁narrowing	-8796
▁necessary	-8797
▁operation	-8798
▁overflows	-8799
▁remaining	-8800
▁reporting	-8801
▁resulting	-8802
▁scrollbar	-8803
▁standards	-8804
ChangeEvent	-8805
WillUnmount	-8806
exponential	-8807
▁Bileşenler	-8808
▁Observable	-8809
▁associated	-8810
▁başlıkları	-8811
▁convention	-8812
▁conversion	-8813
▁decorative	-8814
▁exceptions	-8815
▁hatalarını	-8816
▁horizontal	-8817
▁indicators	-8818
▁interfaces	-8819
▁mismatches	-8820
▁processing	-8821
▁references	-8822
▁reorganize	-8823
▁serializer	-8824
▁strictness	-8825
▁underneath	-8826
▁unexpected	-8827
▁useContext	-8828
clearTimeout	-8829
▁Description	-8830
▁Recommended	-8831
▁adımlarıyla	-8832
▁aggregation	-8833
▁breakpoints	-8834
▁constraints	-8835
▁identically	-8836
▁intentional	-8837
▁interactive	-8838
▁reproducing	-8839
▁setInterval	-8840
▁unavoidable	-8841
▁walkthrough	-8842
-------------	-8843
▁EventEmitter	-8844
▁Optimization	-8845
▁Yapılandırma	-8846
▁destructured	-8847
▁insufficient	-8848
▁materialized	-8849
▁serializable	-8850
▁unsubscribed	-8851
▁accessibility	-8852
▁clearInterval	-8853
▁subcomponents	-8854
▁subscriptions	-8855
HTMLInputElement	-8856
addEventListener	-8857
(#	-8858
()	-8859
(:	-8860
:/	-8861
</	-8862
AA	-8863
AI	-8864
AM	-8865
AN	-8866
AP	-8867
AR	-8868
AS	-8869
AT	-8870
AU	-8871
AW	-8872
Ac	-8873
Ad	-8874
Af	-8875
Ag	-8876
Ah	-8877
Ai	-8878
Aj	-8879
Ak	-8880
Al	-8881
Am	-8882
Ap	-8883
Ar	-8884
At	-8885
Au	-8886
Av	-8887
Ay	-8888
Aç	-8889
BA	-8890
BL	-8891
BY	-8892
Be	-8893
Bi	-8894
Bl	-8895
Bo	-8896
Br	-8897
Bu	-8898
CA	-8899
CI	-8900
CO	-8901
CR	-8902
CS	-8903
CT	-8904
Ca	-8905
Ce	-8906
Ci	-8907
Cl	-8908
Co	-8909
Cr	-8910
Cu	-8911
DM	-8912
DO	-8913
DX	-8914
Da	-8915
Di	-8916
Dj	-8917
Dr	-8918
Ds	-8919
EA	-8920
ED	-8921
EF	-8922
ER	-8923
ES	-8924
Ea	-8925
Ec	-8926
Ed	-8927
Ef	-8928
Ei	-8929
El	-8930
Em	-8931
En	-8932
Es	-8933
Et	-8934
Ev	-8935
FR	-8936
FS	-8937
Fa	-8938
Fe	-8939
Fl	-8940
Fo	-8941
Fr	-8942
Fu	-8943
Ge	-8944
Gi	-8945
Gr	-8946
Gu	-8947
HA	-8948
HG	-8949
HS	-8950
HT	-8951
Ha	-8952
He	-8953
Hi	-8954
Ho	-8955
Hu	-8956
IC	-8957
IM	-8958
IR	-8959
IS	-8960
Id	-8961
If	-8962
Im	-8963
Is	-8964
JD	-8965
JO	-8966
JU	-8967
JW	-8968
Ja	-8969
Je	-8970
Jo	-8971
Ju	-8972
Ka	-8973
Ki	-8974
Kl	-8975
Kn	-8976
Ko	-8977
Kr	-8978
Ku	-8979
Kı	-8980
LE	-8981
LO	-8982
LP	-8983
LR	-8984
LS	-8985
LT	-8986
LY	-8987
Le	-8988
Li	-8989
Lo	-8990
MI	-8991
MO	-8992
MV	-8993
Me	-8994
Mi	-8995
Ms	-8996
Mu	-8997
My	-8998
NA	-8999
ND	-9000
NE	-9001
NF	-9002
NG	-9003
NI	-9004
NO	-9005
NU	-9006
Na	-9007
Ne	-9008
Ng	-9009
No	-9010
Nu	-9011
OA	-9012
OF	-9013
OI	-9014
OK	-9015
OO	-9016
Ob	-9017
Og	-9018
Ok	-9019
Ol	-9020
On	-9021
Op	-9022
Or	-9023
Ou	-9024
PD	-9025
PL	-9026
PO	-9027
PR	-9028
PS	-9029
PT	-9030
Pa	-9031
Pe	-9032
Ph	-9033
Pi	-9034
Pl	-9035
Po	-9036
Pr	-9037
Pu	-9038
Py	-9039
Qu	-9040
RB	-9041
RD	-9042
RF	-9043
RI	-9044
RS	-9045
Ra	-9046
Ri	-9047
Ro	-9048
Ru	-9049
SE	-9050
SL	-9051
SP	-9052
SQ	-9053
SR	-9054
SS	-9055
SV	-9056
SX	-9057
Sa	-9058
Sc	-9059
Se	-9060
Sh	-9061
So	-9062
Sp	-9063
Sq	-9064
Su	-9065
Sy	-9066
TC	-9067
TM	-9068
TO	-9069
TP	-9070
Ta	-9071
Te	-9072
Th	-9073
Ti	-9074
Tu	-9075
Ty	-9076
UB	-9077
UD	-9078
UI	-9079
UL	-9080
UR	-9081
US	-9082
UT	-9083
UU	-9084
Ub	-9085
Ul	-9086
Um	-9087
Us	-9088
Uy	-9089
Uz	-9090
VE	-9091
Va	-9092
Ve	-9093
Vi	-9094
Vu	-9095
WC	-9096
WH	-9097
Wa	-9098
We	-9099
Wh	-9100
Wi	-9101
Wo	-9102
Wr	-9103
XI	-9104
XP	-9105
XT	-9106
Xi	-9107
YA	-9108
Ya	-9109
Ye	-9110
Yo	-9111
Yu	-9112
ZE	-9113
Za	-9114
Ze	-9115
Zh	-9116
Zi	-9117
Zo	-9118
Zu	-9119
_/	-9120
aS	-9121
aa	-9122
ae	-9123
aq	-9124
aw	-9125
aç	-9126
aş	-9127
bS	-9128
bc	-9129
bd	-9130
bg	-9131
bh	-9132
bj	-9133
bk	-9134
bm	-9135
bn	-9136
bp	-9137
bq	-9138
br	-9139
bs	-9140
bv	-9141
bı	-9142
cc	-9143
cj	-9144
ck	-9145
cr	-9146
cs	-9147
dE	-9148
dI	-9149
dM	-9150
dU	-9151
dc	-9152
dd	-9153
df	-9154
dg	-9155
dh	-9156
dm	-9157
dp	-9158
dr	-9159
dt	-9160
dv	-9161
dy	-9162
eC	-9163
eD	-9164
eE	-9165
eO	-9166
eP	-9167
eS	-9168
ea	-9169
ee	-9170
eq	-9171
ew	-9172
ey	-9173
ez	-9174
eç	-9175
eş	-9176
fe	-9177
fl	-9178
fm	-9179
fo	-9180
fr	-9181
fs	-9182
fı	-9183
gM	-9184
gb	-9185
gc	-9186
gd	-9187
gf	-9188
gg	-9189
gj	-9190
gk	-9191
gl	-9192
gm	-9193
gs	-9194
gt	-9195
gw	-9196
gx	-9197
gz	-9198
hQ	-9199
hb	-9200
hc	-9201
hk	-9202
hl	-9203
hn	-9204
hr	-9205
hs	-9206
hç	-9207
hı	-9208
iF	-9209
ih	-9210
iu	-9211
iv	-9212
ix	-9213
iç	-9214
jk	-9215
jw	-9216
jy	-9217
jı	-9218
kc	-9219
kd	-9220
kf	-9221
kg	-9222
kh	-9223
kj	-9224
kl	-9225
km	-9226
kn	-9227
ko	-9228
kp	-9229
kq	-9230
kr	-9231
kv	-9232
kw	-9233
ky	-9234
kz	-9235
kç	-9236
kı	-9237
lC	-9238
lF	-9239
lS	-9240
lU	-9241
lb	-9242
lc	-9243
ld	-9244
lf	-9245
lg	-9246
lh	-9247
lj	-9248
lk	-9249
lm	-9250
ln	-9251
lp	-9252
lr	-9253
ls	-9254
lv	-9255
lw	-9256
mE	-9257
mc	-9258
md	-9259
mk	-9260
mn	-9261
mt	-9262
mv	-9263
my	-9264
mz	-9265
mı	-9266
na	-9267
nb	-9268
nf	-9269
ng	-9270
nh	-9271
ni	-9272
nj	-9273
nk	-9274
nn	-9275
np	-9276
nq	-9277
nr	-9278
nt	-9279
nu	-9280
nv	-9281
nw	-9282
nx	-9283
nz	-9284
nç	-9285
oD	-9286
oE	-9287
oS	-9288
oa	-9289
of	-9290
oh	-9291
oj	-9292
ox	-9293
oy	-9294
oz	-9295
oş	-9296
pa	-9297
pc	-9298
pd	-9299
pg	-9300
ph	-9301
pi	-9302
pn	-9303
pp	-9304
pr	-9305
pç	-9306
pı	-9307
qi	-9308
qì	-9309
rH	-9310
rI	-9311
rT	-9312
rV	-9313
rb	-9314
rf	-9315
rh	-9316
rn	-9317
rp	-9318
rq	-9319
rr	-9320
rt	-9321
rv	-9322
rw	-9323
rz	-9324
rç	-9325
rş	-9326
sb	-9327
sc	-9328
sd	-9329
sg	-9330
sj	-9331
sk	-9332
sl	-9333
sm	-9334
sn	-9335
sq	-9336
sr	-9337
sv	-9338
sw	-9339
sx	-9340
sy	-9341
sı	-9342
tA	-9343
tD	-9344
tE	-9345
tH	-9346
tI	-9347
tL	-9348
tN	-9349
tO	-9350
tS	-9351
tT	-9352
tW	-9353
tb	-9354
tc	-9355
td	-9356
tf	-9357
tg	-9358
tk	-9359
tl	-9360
tm	-9361
tn	-9362
tr	-9363
tw	-9364
tx	-9365
tz	-9366
tı	-9367
uT	-9368
ua	-9369
uc	-9370
ud	-9371
uh	-9372
uj	-9373
uo	-9374
uw	-9375
ux	-9376
uş	-9377
vT	-9378
vb	-9379
vc	-9380
vh	-9381
vj	-9382
vk	-9383
vl	-9384
vr	-9385
vs	-9386
vt	-9387
vu	-9388
vw	-9389
vy	-9390
wa	-9391
wh	-9392
wi	-9393
wl	-9394
wp	-9395
wr	-9396
xb	-9397
xc	-9398
xe	-9399
xo	-9400
xp	-9401
yS	-9402
yb	-9403
yc	-9404
yd	-9405
yf	-9406
yg	-9407
yh	-9408
yl	-9409
ym	-9410
yr	-9411
ys	-9412
yv	-9413
yw	-9414
yz	-9415
zc	-9416
zl	-9417
zm	-9418
zo	-9419
zs	-9420
zu	-9421
zv	-9422
zı	-9423
çl	-9424
çm	-9425
ço	-9426
çs	-9427
çt	-9428
çı	-9429
ıc	-9430
ıd	-9431
ıf	-9432
ıy	-9433
şa	-9434
şf	-9435
şi	-9436
şk	-9437
şl	-9438
şm	-9439
şu	-9440
şv	-9441
▁_	-9442
###	-9443
---	-9444
/..	-9445
ADM	-9446
AIN	-9447
ALY	-9448
ASC	-9449
Ara	-9450
Aut	-9451
Bac	-9452
Ben	-9453
Bil	-9454
Bit	-9455
Bot	-9456
Bre	-9457
Bun	-9458
CHA	-9459
Cac	-9460
Cal	-9461
Cen	-9462
Con	-9463
Cor	-9464
Cri	-9465
Dan	-9466
Das	-9467
Dat	-9468
Den	-9469
Des	-9470
Dil	-9471
Dok	-9472
Dra	-9473
ELE	-9474
ERE	-9475
EST	-9476
Eac	-9477
Eff	-9478
Ein	-9479
Emo	-9480
Far	-9481
Feh	-9482
Fin	-9483
Fle	-9484
Fra	-9485
Gen	-9486
Ges	-9487
Get	-9488
Gra	-9489
Gri	-9490
HEL	-9491
HTT	-9492
Han	-9493
Has	-9494
Hat	-9495
Hem	-9496
Her	-9497
Hes	-9498
IRA	-9499
ITE	-9500
ITO	-9501
Imp	-9502
Jar	-9503
Jes	-9504
Kar	-9505
Kay	-9506
Kis	-9507
Kon	-9508
Kri	-9509
Kub	-9510
LET	-9511
LIC	-9512
LIM	-9513
LIn	-9514
Lan	-9515
Lar	-9516
Len	-9517
Les	-9518
Let	-9519
Lig	-9520
Lin	-9521
Loc	-9522
Log	-9523
Lon	-9524
Man	-9525
Mar	-9526
Men	-9527
Met	-9528
Mok	-9529
Mon	-9530
NDE	-9531
Nac	-9532
Nap	-9533
Non	-9534
Nul	-9535
ONI	-9536
Opt	-9537
Out	-9538
PIR	-9539
PUB	-9540
PUS	-9541
Pan	-9542
Pas	-9543
Pat	-9544
Per	-9545
Pip	-9546
Pla	-9547
Pra	-9548
Pri	-9549
RAN	-9550
RDE	-9551
REA	-9552
REF	-9553
RES	-9554
RET	-9555
RMs	-9556
Rec	-9557
Ren	-9558
Res	-9559
Ris	-9560
Run	-9561
SCA	-9562
SCI	-9563
SEC	-9564
STS	-9565
Sch	-9566
Ser	-9567
Ses	-9568
Sig	-9569
Sil	-9570
Soc	-9571
Son	-9572
Sor	-9573
Ste	-9574
Sun	-9575
TAR	-9576
TAT	-9577
TER	-9578
Tag	-9579
Tan	-9580
Tar	-9581
Ter	-9582
Tes	-9583
Ton	-9584
Tot	-9585
Typ	-9586
Ulu	-9587
Upl	-9588
Use	-9589
VEL	-9590
Val	-9591
Var	-9592
Wan	-9593
War	-9594
Wei	-9595
Whe	-9596
Whi	-9597
Wil	-9598
Wor	-9599
Wra	-9600
Wri	-9601
XPI	-9602
Yan	-9603
Yen	-9604
Yok	-9605
You	-9606
Zod	-9607
Zug	-9608
aab	-9609
aas	-9610
aat	-9611
abl	-9612
abn	-9613
aca	-9614
acc	-9615
aci	-9616
acj	-9617
acr	-9618
adi	-9619
adl	-9620
adm	-9621
ady	-9622
aeb	-9623
aeh	-9624
aen	-9625
aep	-9626
aes	-9627
aft	-9628
aga	-9629
agg	-9630
agj	-9631
agl	-9632
ago	-9633
agr	-9634
ahm	-9635
aie	-9636
aig	-9637
aim	-9638
aip	-9639
air	-9640
ais	-9641
aix	-9642
aiz	-9643
ajı	-9644
akd	-9645
aki	-9646
akp	-9647
aks	-9648
akt	-9649
aku	-9650
akv	-9651
alS	-9652
ala	-9653
ald	-9654
ale	-9655
alf	-9656
alg	-9657
alh	-9658
alj	-9659
alk	-9660
alm	-9661
alo	-9662
alp	-9663
alu	-9664
alw	-9665
ami	-9666
ams	-9667
amı	-9668
anb	-9669
ane	-9670
anf	-9671
anh	-9672
anj	-9673
ank	-9674
anl	-9675
anm	-9676
ann	-9677
anq	-9678
anu	-9679
anw	-9680
anx	-9681
anz	-9682
aoc	-9683
aod	-9684
aog	-9685
aos	-9686
aox	-9687
aoz	-9688
apo	-9689
aps	-9690
aqu	-9691
arI	-9692
arT	-9693
ara	-9694
arc	-9695
arg	-9696
arl	-9697
arm	-9698
aro	-9699
arq	-9700
arr	-9701
aru	-9702
arv	-9703
arç	-9704
arş	-9705
asc	-9706
ask	-9707
asl	-9708
asn	-9709
aso	-9710
asy	-9711
atc	-9712
atf	-9713
ati	-9714
atl	-9715
atn	-9716
atp	-9717
att	-9718
atu	-9719
atı	-9720
aug	-9721
aul	-9722
aus	-9723
aut	-9724
aya	-9725
ayb	-9726
ayg	-9727
ayl	-9728
ayn	-9729
ays	-9730
bab	-9731
bac	-9732
bal	-9733
bas	-9734
bat	-9735
bav	-9736
bde	-9737
bec	-9738
bek	-9739
bel	-9740
ben	-9741
bet	-9742
big	-9743
bin	-9744
bir	-9745
bis	-9746
bit	-9747
bje	-9748
bki	-9749
bla	-9750
bmi	-9751
bno	-9752
bok	-9753
bol	-9754
bon	-9755
bor	-9756
bqu	-9757
bra	-9758
bre	-9759
bri	-9760
bro	-9761
bru	-9762
bst	-9763
bul	-9764
bur	-9765
cab	-9766
cac	-9767
cad	-9768
cal	-9769
can	-9770
cap	-9771
cas	-9772
cat	-9773
cce	-9774
ced	-9775
cee	-9776
cen	-9777
cep	-9778
cer	-9779
cev	-9780
chl	-9781
chs	-9782
cib	-9783
cin	-9784
cip	-9785
cit	-9786
cke	-9787
cor	-9788
cos	-9789
cro	-9790
cte	-9791
cti	-9792
cts	-9793
cul	-9794
cun	-9795
cur	-9796
dIn	-9797
dab	-9798
dac	-9799
dae	-9800
dak	-9801
dal	-9802
dar	-9803
das	-9804
dat	-9805
daş	-9806
dda	-9807
dde	-9808
ddo	-9809
deb	-9810
dei	-9811
dek	-9812
del	-9813
dem	-9814
dev	-9815
dex	-9816
dia	-9817
dib	-9818
dic	-9819
dif	-9820
dig	-9821
dik	-9822
dil	-9823
dim	-9824
din	-9825
dip	-9826
dis	-9827
dit	-9828
div	-9829
diy	-9830
dly	-9831
don	-9832
dos	-9833
dun	-9834
duu	-9835
dye	-9836
eab	-9837
eac	-9838
ead	-9839
eag	-9840
eal	-9841
ean	-9842
eap	-9843
eas	-9844
ebS	-9845
ebh	-9846
ebi	-9847
ebs	-9848
ebu	-9849
ece	-9850
eci	-9851
eco	-9852
ecu	-9853
eda	-9854
edi	-9855
edo	-9856
eed	-9857
eek	-9858
eel	-9859
een	-9860
eer	-9861
ees	-9862
eet	-9863
efa	-9864
ege	-9865
egh	-9866
egi	-9867
egr	-9868
egu	-9869
eha	-9870
eho	-9871
eig	-9872
ein	-9873
eir	-9874
eit	-9875
eiz	-9876
eje	-9877
eji	-9878
ejo	-9879
eks	-9880
ekt	-9881
ekç	-9882
ela	-9883
ele	-9884
elo	-9885
emb	-9886
emc	-9887
emi	-9888
eml	-9889
emo	-9890
ena	-9891
enb	-9892
enc	-9893
enf	-9894
enh	-9895
enj	-9896
enl	-9897
enm	-9898
enn	-9899
eny	-9900
eob	-9901
eog	-9902
eok	-9903
eor	-9904
eos	-9905
eot	-9906
eoy	-9907
epl	-9908
epo	-9909
ept	-9910
equ	-9911
erH	-9912
erV	-9913
erc	-9914
erd	-9915
ere	-9916
erh	-9917
erk	-9918
erl	-9919
erm	-9920
err	-9921
erw	-9922
erz	-9923
erç	-9924
esa	-9925
esb	-9926
esc	-9927
esd	-9928
ese	-9929
esh	-9930
esm	-9931
esp	-9932
esq	-9933
esy	-9934
etI	-9935
etS	-9936
etT	-9937
eta	-9938
ete	-9939
etg	-9940
eth	-9941
eti	-9942
etm	-9943
etr	-9944
ets	-9945
etu	-9946
etw	-9947
etz	-9948
eub	-9949
eun	-9950
eur	-9951
eus	-9952
eut	-9953
evT	-9954
evc	-9955
exa	-9956
exc	-9957
eye	-9958
eyi	-9959
eyo	-9960
fan	-9961
far	-9962
fas	-9963
fay	-9964
fec	-9965
ffi	-9966
fid	-9967
fie	-9968
fig	-9969
fin	-9970
fiz	-9971
fle	-9972
flo	-9973
foc	-9974
for	-9975
fra	-9976
fre	-9977
fri	-9978
fte	-9979
fun	-9980
fut	-9981
gab	-9982
gai	-9983
gan	-9984
gar	-9985
gat	-9986
gch	-9987
gdo	-9988
ged	-9989
gem	-9990
gfi	-9991
gge	-9992
gil	-9993
gis	-9994
gku	-9995
gla	-9996
gok	-9997
gor	-9998
gos	-9999
gou	-10000
gra	-10001
gri	-10002
gul	-10003
gun	-10004
gus	-10005
hQL	-10006
hac	-10007
had	-10008
hag	-10009
hak	-10010
hap	-10011
hch	-10012
hea	-10013
heb	-10014
hec	-10015
hej	-10016
hem	-10017
het	-10018
hey	-10019
hez	-10020
hib	-10021
hie	-10022
hif	-10023
hig	-10024
hih	-10025
hik	-10026
hip	-10027
hiq	-10028
hir	-10029
his	-10030
hit	-10031
hix	-10032
hiz	-10033
hle	-10034
hms	-10035
hoe	-10036
hok	-10037
hom	-10038
hop	-10039
hor	-10040
hos	-10041
hot	-10042
hra	-10043
hre	-10044
hri	-10045
hro	-10046
hte	-10047
htm	-10048
hts	-10049
htt	-10050
huj	-10051
hul	-10052
hur	-10053
hut	-10054
huu	-10055
hye	-10056
hçe	-10057
hıs	-10058
iag	-10059
iat	-10060
ibi	-10061
ibo	-10062
ich	-10063
ics	-10064
ict	-10065
idM	-10066
idU	-10067
idd	-10068
idg	-10069
idi	-10070
ido	-10071
idt	-10072
ien	-10073
ier	-10074
iff	-10075
igh	-10076
igr	-10077
ihu	-10078
ijy	-10079
ike	-10080
iki	-10081
ikl	-10082
ikm	-10083
iks	-10084
ikt	-10085
ila	-10086
ilb	-10087
ilg	-10088
ilj	-10089
ilk	-10090
ilm	-10091
ilt	-10092
ilw	-10093
imo	-10094
imp	-10095
inc	-10096
inh	-10097
inj	-10098
inl	-10099
inm	-10100
inn	-10101
inp	-10102
inq	-10103
inr	-10104
inu	-10105
inv	-10106
inx	-10107
iou	-10108
ipi	-10109
ipp	-10110
ips	-10111
iqu	-10112
ira	-10113
irf	-10114
iri	-10115
irl	-10116
iro	-10117
irt	-10118
iru	-10119
isa	-10120
isc	-10121
ise	-10122
iso	-10123
isp	-10124
isy	-10125
itH	-10126
itL	-10127
itb	-10128
ith	-10129
itl	-10130
itt	-10131
iuf	-10132
ium	-10133
ius	-10134
iva	-10135
iye	-10136
ize	-10137
izh	-10138
jad	-10139
jan	-10140
jar	-10141
jav	-10142
jek	-10143
jey	-10144
jij	-10145
jil	-10146
jis	-10147
jit	-10148
joh	-10149
jor	-10150
jos	-10151
jun	-10152
kac	-10153
kag	-10154
kal	-10155
kan	-10156
kar	-10157
kas	-10158
kat	-10159
kdo	-10160
kel	-10161
kes	-10162
keu	-10163
khe	-10164
kib	-10165
kic	-10166
kii	-10167
kik	-10168
kil	-10169
kin	-10170
kit	-10171
kiy	-10172
kje	-10173
kke	-10174
kku	-10175
kla	-10176
kly	-10177
klı	-10178
kme	-10179
kno	-10180
kon	-10181
kov	-10182
kqu	-10183
kri	-10184
kse	-10185
kst	-10186
ksı	-10187
ktb	-10188
kte	-10189
ktı	-10190
kuj	-10191
kun	-10192
kur	-10193
kye	-10194
kyu	-10195
kze	-10196
kçe	-10197
kın	-10198
lac	-10199
lad	-10200
lai	-10201
lau	-10202
laz	-10203
lch	-10204
ldi	-10205
ldu	-10206
lea	-10207
leb	-10208
lef	-10209
lek	-10210
leo	-10211
leu	-10212
lew	-10213
lgo	-10214
lim	-10215
lin	-10216
lip	-10217
lit	-10218
liy	-10219
liş	-10220
lje	-10221
llb	-10222
lle	-10223
lli	-10224
llo	-10225
lma	-10226
lme	-10227
lno	-10228
lod	-10229
lok	-10230
lom	-10231
lon	-10232
lor	-10233
los	-10234
lot	-10235
lou	-10236
lov	-10237
lre	-10238
lri	-10239
lst	-10240
lte	-10241
lti	-10242
lts	-10243
lud	-10244
luj	-10245
lum	-10246
lur	-10247
lus	-10248
lut	-10249
lux	-10250
luş	-10251
lve	-10252
lye	-10253
lyw	-10254
lıc	-10255
lıl	-10256
lım	-10257
lın	-10258
lır	-10259
lıy	-10260
lış	-10261
mac	-10262
mad	-10263
mag	-10264
mam	-10265
mar	-10266
mat	-10267
maç	-10268
mda	-10269
med	-10270
men	-10271
meo	-10272
mer	-10273
mew	-10274
mic	-10275
mim	-10276
miy	-10277
mki	-10278
mlF	-10279
mla	-10280
mli	-10281
mlı	-10282
mmi	-10283
mod	-10284
moj	-10285
mok	-10286
mor	-10287
mot	-10288
mov	-10289
mpa	-10290
mpe	-10291
mpi	-10292
mpl	-10293
mpr	-10294
msa	-10295
mst	-10296
mto	-10297
mul	-10298
mun	-10299
mus	-10300
mza	-10301
nab	-10302
nac	-10303
nai	-10304
nam	-10305
nan	-10306
nap	-10307
nar	-10308
nas	-10309
nat	-10310
nca	-10311
nda	-10312
nea	-10313
nel	-10314
nen	-10315
nes	-10316
nic	-10317
nip	-10318
nis	-10319
nle	-10320
nme	-10321
nmo	-10322
noE	-10323
nol	-10324
non	-10325
nor	-10326
nos	-10327
nov	-10328
nst	-10329
nta	-10330
nte	-10331
nti	-10332
num	-10333
nız	-10334
oac	-10335
oan	-10336
oap	-10337
oar	-10338
oba	-10339
obi	-10340
oca	-10341
oco	-10342
ocs	-10343
ocu	-10344
oda	-10345
odg	-10346
odi	-10347
ods	-10348
odu	-10349
oed	-10350
ogb	-10351
ogh	-10352
ogi	-10353
ogl	-10354
ogo	-10355
ogs	-10356
oin	-10357
ois	-10358
oji	-10359
oju	-10360
okh	-10361
okl	-10362
oko	-10363
oks	-10364
oky	-10365
ola	-10366
oll	-10367
olm	-10368
oma	-10369
omb	-10370
ome	-10371
omi	-10372
omu	-10373
ona	-10374
onc	-10375
onf	-10376
oni	-10377
onk	-10378
onl	-10379
onm	-10380
onn	-10381
ono	-10382
onp	-10383
onr	-10384
ons	-10385
onv	-10386
oog	-10387
ool	-10388
oon	-10389
oop	-10390
oor	-10391
oos	-10392
ope	-10393
opl	-10394
opt	-10395
opy	-10396
orc	-10397
ori	-10398
orl	-10399
orp	-10400
orr	-10401
orw	-10402
orz	-10403
osh	-10404
oso	-10405
osy	-10406
ota	-10407
ote	-10408
oth	-10409
oti	-10410
otk	-10411
otl	-10412
ott	-10413
otu	-10414
ouh	-10415
ouj	-10416
oul	-10417
oun	-10418
ouw	-10419
ovk	-10420
ovy	-10421
own	-10422
oya	-10423
oyo	-10424
oze	-10425
ozh	-10426
pag	-10427
pan	-10428
pat	-10429
pay	-10430
pda	-10431
pec	-10432
pel	-10433
pes	-10434
pge	-10435
phi	-10436
pho	-10437
pic	-10438
pin	-10439
pis	-10440
pit	-10441
pla	-10442
pli	-10443
plu	-10444
pok	-10445
por	-10446
pos	-10447
ppu	-10448
pra	-10449
pre	-10450
pru	-10451
psi	-10452
pta	-10453
pur	-10454
pus	-10455
puy	-10456
pyo	-10457
pçi	-10458
qin	-10459
rad	-10460
raf	-10461
rak	-10462
rau	-10463
rce	-10464
rci	-10465
rda	-10466
rde	-10467
rdi	-10468
reS	-10469
rea	-10470
reb	-10471
reh	-10472
rei	-10473
rej	-10474
rek	-10475
rem	-10476
ren	-10477
reu	-10478
rey	-10479
rie	-10480
rif	-10481
rig	-10482
rih	-10483
rii	-10484
rij	-10485
ril	-10486
riv	-10487
riy	-10488
rke	-10489
rla	-10490
rle	-10491
rli	-10492
rlı	-10493
rma	-10494
rms	-10495
rmı	-10496
rob	-10497
roc	-10498
rod	-10499
rof	-10500
roi	-10501
roj	-10502
rok	-10503
rol	-10504
roo	-10505
ros	-10506
rot	-10507
rou	-10508
rox	-10509
roy	-10510
rre	-10511
rri	-10512
rsa	-10513
rst	-10514
rte	-10515
ruc	-10516
rud	-10517
rug	-10518
rui	-10519
rul	-10520
run	-10521
ruz	-10522
rye	-10523
ryo	-10524
ryt	-10525
rım	-10526
sab	-10527
sag	-10528
saj	-10529
san	-10530
sar	-10531
sas	-10532
say	-10533
sdi	-10534
sel	-10535
sen	-10536
seu	-10537
sha	-10538
she	-10539
shi	-10540
sho	-10541
shu	-10542
sib	-10543
sid	-10544
sil	-10545
sit	-10546
sja	-10547
sla	-10548
sle	-10549
slo	-10550
sly	-10551
sma	-10552
smo	-10553
soc	-10554
sok	-10555
sor	-10556
sou	-10557
sov	-10558
spl	-10559
stA	-10560
std	-10561
stg	-10562
stl	-10563
stm	-10564
str	-10565
stu	-10566
suf	-10567
sur	-10568
sut	-10569
sın	-10570
tac	-10571
tak	-10572
tal	-10573
tan	-10574
tap	-10575
tat	-10576
tch	-10577
tea	-10578
teb	-10579
tec	-10580
tee	-10581
tej	-10582
teu	-10583
tev	-10584
tex	-10585
tey	-10586
tez	-10587
ths	-10588
tie	-10589
tig	-10590
til	-10591
tin	-10592
tip	-10593
tis	-10594
tit	-10595
tiv	-10596
tki	-10597
tla	-10598
tle	-10599
tly	-10600
tme	-10601
tmo	-10602
top	-10603
toy	-10604
tpl	-10605
tps	-10606
tre	-10607
tri	-10608
tro	-10609
tru	-10610
tsc	-10611
tsl	-10612
tst	-10613
tsu	-10614
tte	-10615
ttp	-10616
tts	-10617
tub	-10618
tun	-10619
tur	-10620
tut	-10621
tya	-10622
typ	-10623
tık	-10624
tın	-10625
tır	-10626
tıs	-10627
uag	-10628
uai	-10629
ual	-10630
uar	-10631
uas	-10632
ubl	-10633
uce	-10634
uda	-10635
udi	-10636
ueb	-10637
uec	-10638
ueg	-10639
uel	-10640
uen	-10641
ueu	-10642
ugg	-10643
ugo	-10644
ugu	-10645
uhy	-10646
uic	-10647
uik	-10648
uil	-10649
uit	-10650
uje	-10651
uke	-10652
uki	-10653
uku	-10654
ula	-10655
ulg	-10656
uli	-10657
ulj	-10658
uln	-10659
ulu	-10660
uma	-10661
uml	-10662
umn	-10663
ump	-10664
ums	-10665
unb	-10666
unc	-10667
une	-10668
unl	-10669
unm	-10670
unn	-10671
unr	-10672
uns	-10673
uol	-10674
uou	-10675
upl	-10676
upo	-10677
urc	-10678
urd	-10679
urf	-10680
urg	-10681
urm	-10682
urv	-10683
usc	-10684
usq	-10685
utE	-10686
utf	-10687
uti	-10688
utk	-10689
utl	-10690
utp	-10691
utt	-10692
utu	-10693
utz	-10694
uur	-10695
uuz	-10696
uve	-10697
uya	-10698
uyd	-10699
uyo	-10700
uze	-10701
vaS	-10702
vab	-10703
vag	-10704
vaj	-10705
vak	-10706
van	-10707
var	-10708
vat	-10709
veE	-10710
vej	-10711
vey	-10712
vic	-10713
vid	-10714
vie	-10715
vig	-10716
vin	-10717
vir	-10718
vis	-10719
viy	-10720
vja	-10721
vki	-10722
voi	-10723
vok	-10724
von	-10725
vou	-10726
vre	-10727
vto	-10728
vul	-10729
was	-10730
web	-10731
wer	-10732
wil	-10733
win	-10734
wle	-10735
wor	-10736
wra	-10737
wri	-10738
xac	-10739
xao	-10740
xbo	-10741
xce	-10742
xec	-10743
xed	-10744
xes	-10745
xis	-10746
xit	-10747
xpl	-10748
xte	-10749
yaa	-10750
yag	-10751
yak	-10752
yal	-10753
yam	-10754
yan	-10755
yao	-10756
yar	-10757
yas	-10758
yav	-10759
yay	-10760
yaz	-10761
ybo	-10762
yda	-10763
yde	-10764
yeh	-10765
yem	-10766
yen	-10767
yeo	-10768
yes	-10769
yey	-10770
ygu	-10771
yib	-10772
yic	-10773
yil	-10774
yim	-10775
yin	-10776
yit	-10777
yoh	-10778
yok	-10779
yoo	-10780
yos	-10781
you	-10782
ypt	-10783
yru	-10784
yst	-10785
yta	-10786
yte	-10787
ytl	-10788
ytı	-10789
yun	-10790
yuu	-10791
yva	-10792
yvo	-10793
yın	-10794
zab	-10795
zac	-10796
zag	-10797
zak	-10798
zap	-10799
zas	-10800
zat	-10801
zca	-10802
zda	-10803
zei	-10804
zek	-10805
zhn	-10806
zhu	-10807
zil	-10808
zir	-10809
zma	-10810
zok	-10811
zon	-10812
zor	-10813
zov	-10814
zse	-10815
zuf	-10816
zuk	-10817
zum	-10818
zvi	-10819
zvo	-10820
zım	-10821
zın	-10822
çal	-10823
çan	-10824
ças	-10825
çer	-10826
çin	-10827
çiş	-10828
çme	-10829
çmi	-10830
çok	-10831
çti	-10832
ıda	-10833
ıfa	-10834
ıkç	-10835
ıkı	-10836
ıla	-10837
ılm	-10838
ıms	-10839
ırs	-10840
ışt	-10841
ışı	-10842
şar	-10843
şek	-10844
şem	-10845
şif	-10846
şik	-10847
şim	-10848
şin	-10849
şir	-10850
şis	-10851
şla	-10852
şlu	-10853
şlı	-10854
şma	-10855
şte	-10856
ştı	-10857
şık	-10858
şıl	-10859
şım	-10860
şın	-10861
şır	-10862
▁..	-10863
▁AL	-10864
▁AN	-10865
▁AP	-10866
▁AR	-10867
▁AS	-10868
▁AU	-10869
▁AW	-10870
▁Ab	-10871
▁Af	-10872
▁Ai	-10873
▁Aj	-10874
▁Al	-10875
▁Am	-10876
▁Ap	-10877
▁Av	-10878
▁Ay	-10879
▁Aç	-10880
▁Be	-10881
▁Bl	-10882
▁Bo	-10883
▁Br	-10884
▁Bu	-10885
▁CO	-10886
▁CR	-10887
▁CT	-10888
▁Ce	-10889
▁Ci	-10890
▁Co	-10891
▁Cr	-10892
▁Cu	-10893
▁DE	-10894
▁DO	-10895
▁Ec	-10896
▁Ed	-10897
▁Em	-10898
▁Ev	-10899
▁Fa	-10900
▁Fe	-10901
▁Fl	-10902
▁Fu	-10903
▁GE	-10904
▁Gi	-10905
▁Gu	-10906
▁HS	-10907
▁HT	-10908
▁Hi	-10909
▁Ho	-10910
▁IS	-10911
▁Id	-10912
▁JD	-10913
▁JO	-10914
▁JW	-10915
▁Ja	-10916
▁Je	-10917
▁Jo	-10918
▁Ka	-10919
▁Ke	-10920
▁Kl	-10921
▁Kn	-10922
▁Ko	-10923
▁Ku	-10924
▁Kı	-10925
▁LO	-10926
▁LP	-10927
▁La	-10928
▁Li	-10929
▁Lo	-10930
▁MO	-10931
▁MV	-10932
▁Ma	-10933
▁Me	-10934
▁Mu	-10935
▁My	-10936
▁NE	-10937
▁NO	-10938
▁NU	-10939
▁Ng	-10940
▁OA	-10941
▁OF	-10942
▁OO	-10943
▁Og	-10944
▁Op	-10945
▁Or	-10946
▁PD	-10947
▁PI	-10948
▁PO	-10949
▁Pa	-10950
▁Pi	-10951
▁Po	-10952
▁Pr	-10953
▁Pu	-10954
▁Py	-10955
▁RB	-10956
▁RF	-10957
▁Ra	-10958
▁SE	-10959
▁SL	-10960
▁SP	-10961
▁SQ	-10962
▁ST	-10963
▁Sc	-10964
▁Se	-10965
▁Si	-10966
▁Sp	-10967
▁Sq	-10968
▁Su	-10969
▁Sy	-10970
▁TL	-10971
▁TT	-10972
▁Ta	-10973
▁Th	-10974
▁Ty	-10975
▁UR	-10976
▁UU	-10977
▁Ub	-10978
▁Um	-10979
▁Un	-10980
▁Us	-10981
▁Uz	-10982
▁Vi	-10983
▁Vu	-10984
▁WC	-10985
▁WH	-10986
▁Wh	-10987
▁Wi	-10988
▁YA	-10989
▁Ya	-10990
▁Yu	-10991
▁Ze	-10992
▁Zh	-10993
▁Zi	-10994
▁Zu	-10995
▁ae	-10996
▁af	-10997
▁ai	-10998
▁aj	-10999
▁ak	-11000
▁am	-11001
▁aw	-11002
▁br	-11003
▁bı	-11004
▁ce	-11005
▁ci	-11006
▁cr	-11007
▁cu	-11008
▁dl	-11009
▁dr	-11010
▁dt	-11011
▁dv	-11012
▁dy	-11013
▁dı	-11014
▁ef	-11015
▁eq	-11016
▁ev	-11017
▁fe	-11018
▁ff	-11019
▁fr	-11020
▁fı	-11021
▁gl	-11022
▁go	-11023
▁gy	-11024
▁ho	-11025
▁ht	-11026
▁hw	-11027
▁hı	-11028
▁ik	-11029
▁je	-11030
▁jo	-11031
▁ju	-11032
▁jw	-11033
▁ki	-11034
▁kl	-11035
▁kn	-11036
▁lu	-11037
▁ma	-11038
▁mn	-11039
▁mv	-11040
▁ng	-11041
▁np	-11042
▁nu	-11043
▁og	-11044
▁ov	-11045
▁pe	-11046
▁pi	-11047
▁pp	-11048
▁pr	-11049
▁pu	-11050
▁ra	-11051
▁ru	-11052
▁sd	-11053
▁sr	-11054
▁sw	-11055
▁sy	-11056
▁tu	-11057
▁tw	-11058
▁ub	-11059
▁uj	-11060
▁ut	-11061
▁va	-11062
▁vh	-11063
▁vi	-11064
▁vo	-11065
▁vu	-11066
▁wi	-11067
▁yo	-11068
▁za	-11069
▁zd	-11070
▁zi	-11071
▁çe	-11072
▁çı	-11073
▁şa	-11074
▁şe	-11075
▁şi	-11076
ALYZ	-11077
ATCH	-11078
Beri	-11079
Call	-11080
Cont	-11081
Dang	-11082
DidM	-11083
DidU	-11084
Doku	-11085
Dski	-11086
ELEC	-11087
ELET	-11088
EVEL	-11089
FSET	-11090
GitH	-11091
Grap	-11092
Hang	-11093
Hede	-11094
IMIT	-11095
LAIN	-11096
LRAN	-11097
Lang	-11098
Leng	-11099
Lite	-11100
Load	-11101
Long	-11102
MLIn	-11103
Ment	-11104
Nach	-11105
Ngin	-11106
ONIT	-11107
Post	-11108
Pris	-11109
Prob	-11110
Prov	-11111
Quer	-11112
RDER	-11113
RESH	-11114
Scri	-11115
Sett	-11116
TCHA	-11117
TTPS	-11118
Tool	-11119
Tube	-11120
Unit	-11121
Vali	-11122
Vars	-11123
Veri	-11124
Webp	-11125
Wrap	-11126
Writ	-11127
aato	-11128
aban	-11129
abas	-11130
abel	-11131
abil	-11132
abis	-11133
abla	-11134
abor	-11135
abri	-11136
acce	-11137
aced	-11138
achi	-11139
acht	-11140
acij	-11141
acik	-11142
acil	-11143
acke	-11144
ackg	-11145
ackl	-11146
ackn	-11147
acko	-11148
ackt	-11149
ackw	-11150
acro	-11151
acte	-11152
acti	-11153
acto	-11154
ader	-11155
aeng	-11156
aess	-11157
agar	-11158
agen	-11159
agin	-11160
agla	-11161
agun	-11162
aida	-11163
aige	-11164
ainf	-11165
aiou	-11166
aipu	-11167
airu	-11168
aite	-11169
aket	-11170
akik	-11171
akpo	-11172
akse	-11173
akte	-11174
akto	-11175
akut	-11176
akvi	-11177
alan	-11178
alda	-11179
aldi	-11180
alen	-11181
alho	-11182
alin	-11183
alis	-11184
alit	-11185
alje	-11186
alkt	-11187
alle	-11188
alli	-11189
allo	-11190
ally	-11191
alma	-11192
alno	-11193
alre	-11194
alri	-11195
alsa	-11196
alse	-11197
alue	-11198
alış	-11199
amed	-11200
anaa	-11201
anag	-11202
anal	-11203
anat	-11204
anbi	-11205
anch	-11206
ande	-11207
andi	-11208
andl	-11209
aned	-11210
anej	-11211
anen	-11212
aner	-11213
anes	-11214
angb	-11215
angc	-11216
angh	-11217
angj	-11218
angs	-11219
angt	-11220
angu	-11221
angw	-11222
angy	-11223
angı	-11224
anhu	-11225
anic	-11226
anij	-11227
anim	-11228
anin	-11229
anip	-11230
anis	-11231
anje	-11232
anke	-11233
anla	-11234
anne	-11235
anny	-11236
anqu	-11237
anri	-11238
anse	-11239
ansh	-11240
anti	-11241
antl	-11242
anzh	-11243
aoch	-11244
aozh	-11245
apak	-11246
apan	-11247
apas	-11248
apat	-11249
apay	-11250
apol	-11251
appy	-11252
apsa	-11253
aque	-11254
arIn	-11255
arac	-11256
arag	-11257
arai	-11258
arak	-11259
aral	-11260
aran	-11261
arar	-11262
aras	-11263
arat	-11264
aray	-11265
arda	-11266
ardc	-11267
arde	-11268
aren	-11269
arer	-11270
ares	-11271
arid	-11272
arie	-11273
arin	-11274
aris	-11275
arit	-11276
ariz	-11277
arka	-11278
arke	-11279
arkl	-11280
arkı	-11281
arly	-11282
arlı	-11283
arma	-11284
arou	-11285
arqu	-11286
arra	-11287
arre	-11288
arri	-11289
arro	-11290
arsa	-11291
arte	-11292
arti	-11293
artu	-11294
artı	-11295
arug	-11296
aryo	-11297
arın	-11298
arır	-11299
arıy	-11300
asap	-11301
asar	-11302
asch	-11303
asea	-11304
ased	-11305
aseg	-11306
ashb	-11307
asht	-11308
asic	-11309
asil	-11310
asin	-11311
asit	-11312
asla	-11313
asno	-11314
asos	-11315
asse	-11316
assi	-11317
assw	-11318
astA	-11319
aste	-11320
asti	-11321
asts	-11322
atab	-11323
atal	-11324
atas	-11325
atay	-11326
atei	-11327
atel	-11328
ates	-11329
atib	-11330
atin	-11331
atla	-11332
atma	-11333
atny	-11334
atos	-11335
atpl	-11336
atte	-11337
atto	-11338
atır	-11339
atış	-11340
ause	-11341
avaS	-11342
aven	-11343
aver	-11344
away	-11345
ayal	-11346
ayde	-11347
aygı	-11348
ayit	-11349
ayla	-11350
ayım	-11351
baas	-11352
bage	-11353
bank	-11354
bcry	-11355
beat	-11356
bect	-11357
bels	-11358
bess	-11359
bili	-11360
bind	-11361
bjec	-11362
bles	-11363
bmit	-11364
brab	-11365
bsch	-11366
bund	-11367
buro	-11368
cans	-11369
cape	-11370
cate	-11371
ceed	-11372
ceki	-11373
cell	-11374
cere	-11375
cesi	-11376
ceso	-11377
cevo	-11378
chan	-11379
char	-11380
chas	-11381
chec	-11382
chem	-11383
chen	-11384
chig	-11385
chin	-11386
chiv	-11387
chli	-11388
chna	-11389
chni	-11390
chra	-11391
chre	-11392
chri	-11393
chsh	-11394
chte	-11395
chti	-11396
cing	-11397
ciri	-11398
cisi	-11399
cket	-11400
clar	-11401
clud	-11402
cove	-11403
crat	-11404
crea	-11405
crip	-11406
cted	-11407
ctly	-11408
ctor	-11409
ctur	-11410
cuna	-11411
curs	-11412
cıya	-11413
dade	-11414
dail	-11415
dang	-11416
dard	-11417
dary	-11418
dast	-11419
dayj	-11420
dded	-11421
defa	-11422
deki	-11423
dela	-11424
dele	-11425
deli	-11426
delo	-11427
demp	-11428
dene	-11429
derH	-11430
derV	-11431
deri	-11432
deve	-11433
dial	-11434
dida	-11435
dier	-11436
diff	-11437
difi	-11438
dify	-11439
dili	-11440
dimi	-11441
dire	-11442
diri	-11443
dite	-11444
dito	-11445
dium	-11446
dlan	-11447
dlen	-11448
dmin	-11449
dold	-11450
doma	-11451
dong	-11452
duct	-11453
dund	-11454
dung	-11455
eact	-11456
ealt	-11457
eans	-11458
eart	-11459
eatm	-11460
eber	-11461
ebho	-11462
ebil	-11463
ebur	-11464
eces	-11465
echn	-11466
ecis	-11467
ecom	-11468
econ	-11469
ecos	-11470
ecre	-11471
ecri	-11472
ecti	-11473
ecto	-11474
ects	-11475
ecut	-11476
edde	-11477
edel	-11478
eden	-11479
eduu	-11480
eede	-11481
efac	-11482
efen	-11483
efor	-11484
egeo	-11485
egur	-11486
egye	-11487
eheb	-11488
eiji	-11489
eing	-11490
eiri	-11491
eist	-11492
eits	-11493
eiya	-11494
ejad	-11495
ejin	-11496
ejor	-11497
ekil	-11498
ekme	-11499
ektu	-11500
elas	-11501
eldi	-11502
elen	-11503
eler	-11504
elin	-11505
elip	-11506
elir	-11507
eliş	-11508
elli	-11509
elow	-11510
emas	-11511
emel	-11512
emen	-11513
emiş	-11514
emli	-11515
emor	-11516
empt	-11517
enac	-11518
ench	-11519
enci	-11520
endl	-11521
endp	-11522
ends	-11523
endu	-11524
enec	-11525
enel	-11526
enen	-11527
eneo	-11528
ener	-11529
enge	-11530
engl	-11531
engs	-11532
engt	-11533
engx	-11534
enid	-11535
enin	-11536
enir	-11537
eniy	-11538
enle	-11539
enli	-11540
enmi	-11541
enno	-11542
ense	-11543
ensi	-11544
enst	-11545
entD	-11546
entE	-11547
entL	-11548
entO	-11549
entW	-11550
enta	-11551
entf	-11552
enth	-11553
entl	-11554
entr	-11555
ents	-11556
entw	-11557
enum	-11558
enve	-11559
enzh	-11560
eoms	-11561
eoyo	-11562
eplo	-11563
erab	-11564
erac	-11565
eran	-11566
erat	-11567
erch	-11568
erde	-11569
erdi	-11570
erfi	-11571
erid	-11572
erif	-11573
eril	-11574
erin	-11575
eris	-11576
erit	-11577
eriy	-11578
erle	-11579
erly	-11580
erme	-11581
ermi	-11582
erna	-11583
erre	-11584
erro	-11585
ersi	-11586
erst	-11587
ertb	-11588
erti	-11589
erun	-11590
erus	-11591
ervi	-11592
ervo	-11593
erzt	-11594
esab	-11595
esch	-11596
esde	-11597
esei	-11598
esen	-11599
eser	-11600
eses	-11601
eset	-11602
esho	-11603
eshu	-11604
esig	-11605
esij	-11606
esin	-11607
esit	-11608
esiy	-11609
eski	-11610
esle	-11611
esli	-11612
esmi	-11613
esol	-11614
esqu	-11615
essa	-11616
esse	-11617
essi	-11618
essy	-11619
esta	-11620
este	-11621
estr	-11622
estu	-11623
esul	-11624
esun	-11625
esye	-11626
etab	-11627
etar	-11628
etes	-11629
etho	-11630
etin	-11631
etov	-11632
etri	-11633
etry	-11634
ette	-11635
etto	-11636
etup	-11637
etur	-11638
etwe	-11639
euke	-11640
euki	-11641
eung	-11642
euri	-11643
eurs	-11644
euto	-11645
ever	-11646
exao	-11647
eyon	-11648
ezop	-11649
fach	-11650
fact	-11651
▁	-11652
e	-11653
t	-11654
a	-11655
n	-11656
i	-11657
o	-11658
r	-11659
s	-11660
.	-11661
c	-11662
u	-11663
l	-11664
d	-11665
m	-11666
p	-11667
#	-11668
g	-11669
h	-11670
k	-11671
f	-11672
y	-11673
-	-11674
b	-11675
>	-11676
<	-11677
C	-11678
K	-11679
:	-11680
j	-11681
z	-11682
O	-11683
A	-11684
/	-11685
x	-11686
v	-11687
1	-11688
2	-11689
w	-11690
S	-11691
D	-11692
F	-11693
B	-11694
V	-11695
P	-11696
,	-11697
T	-11698
3	-11699
_	-11700
4	-11701
I	-11702
M	-11703
E	-11704
R	-11705
—	-11706
5	-11707
+	-11708
J	-11709
'	-11710
W	-11711
G	-11712
q	-11713
Y	-11714
L	-11715
Z	-11716
H	-11717
Q	-11718
U	-11719
N	-11720
ı	-11721
X	-11722
ç	-11723
ì	-11724
ş	-11725
(	-11726
)	-11727
